<unk>	0
<s>	0
</s>	0
<pad>	0
▁ا	-0
▁ب	-1
▁م	-2
▁د	-3
ان	-4
▁و	-5
▁ک	-6
ای	-7
ار	-8
▁ت	-9
ست	-10
▁ر	-11
▁ن	-12
▁ه	-13
▁در	-14
ین	-15
▁ش	-16
▁س	-17
▁به	-18
ند	-19
▁خ	-20
ام	-21
▁آ	-22
▁با	-23
ود	-24
▁از	-25
ور	-26
اد	-27
▁پ	-28
ید	-29
ال	-30
▁می	-31
▁بر	-32
▁است	-33
▁را	-34
رد	-35
▁ج	-36
▁ف	-37
یر	-38
▁که	-39
▁گ	-40
▁ع	-41
▁ح	-42
اه	-43
▁این	-44
ات	-45
لی	-46
▁ی	-47
ون	-48
▁ق	-49
اب	-50
▁ز	-51
یم	-52
شت	-53
▁هم	-54
ری	-55
▁چ	-56
فت	-57
ده	-58
▁رو	-59
های	-60
از	-61
..	-62
اس	-63
ول	-64
ها	-65
رو	-66
▁آن	-67
▁های	-68
▁ام	-69
▁ان	-70
اری	-71
وان	-72
▁ص	-73
▁کن	-74
لا	-75
▁من	-76
تر	-77
▁برای	-78
مان	-79
یت	-80
را	-81
▁کرد	-82
سی	-83
ه‌	-84
گر	-85
وی	-86
▁می‌	-87
▁یک	-88
می	-89
▁مو	-90
▁ط	-91
انی	-92
تی	-93
▁خود	-94
▁دار	-95
ما	-96
▁تو	-97
▁بود	-98
▁ك	-99
▁(	-100
▁ها	-101
اده	-102
▁شد	-103
زی	-104
خت	-105
نگ	-106
▁کار	-107
▁خو	-108
گاه	-109
▁ل	-110
▁فر	-111
▁نی	-112
▁مح	-113
▁تا	-114
▁ال	-115
▁بی	-116
▁باش	-117
هر	-118
دا	-119
▁اس	-120
زار	-121
کن	-122
بر	-123
▁شده	-124
وم	-125
ایی	-126
▁دا	-127
▁مع	-128
▁دان	-129
▁پی	-130
لام	-131
▁آم	-132
▁ای	-133
▁۱	-134
...	-135
وز	-136
انه	-137
بی	-138
رک	-139
گی	-140
▁سال	-141
ورد	-142
ين	-143
▁ار	-144
نی	-145
▁ایر	-146
له	-147
بت	-148
▁اف	-149
▁1	-150
▁دو	-151
یل	-152
▁نم	-153
امه	-154
▁مد	-155
▁سر	-156
شن	-157
▁،	-158
اره	-159
▁دی	-160
▁یا	-161
اید	-162
‌های	-163
رف	-164
▁دست	-165
▁مت	-166
به	-167
▁مش	-168
شته	-169
▁ما	-170
▁نظ	-171
▁مس	-172
▁مق	-173
▁غ	-174
قی	-175
ایت	-176
▁قر	-177
▁شما	-178
ارد	-179
▁کش	-180
جه	-181
▁شود	-182
وری	-183
▁مر	-184
▁تر	-185
▁هست	-186
▁هر	-187
▁.	-188
که	-189
▁ایران	-190
عی	-191
▁-	-192
با	-193
ستان	-194
▁گفت	-195
عه	-196
شی	-197
ادی	-198
▁او	-199
▁«	-200
نده	-201
▁گر	-202
دی	-203
▁مج	-204
▁روز	-205
در	-206
▁سا	-207
▁2	-208
وا	-209
دید	-210
الی	-211
عت	-212
▁باشد	-213
فر	-214
▁تح	-215
▁نو	-216
▁رس	-217
▁عم	-218
▁ده	-219
یا	-220
▁بد	-221
▁کنید	-222
‌ها	-223
▁...	-224
▁انت	-225
عد	-226
▁مرد	-227
ایش	-228
▁نش	-229
▁چه	-230
کی	-231
▁باز	-232
▁مط	-233
▁بخ	-234
من	-235
اق	-236
اف	-237
▁اج	-238
▁دارد	-239
▁جم	-240
کر	-241
▁مي	-242
▁تم	-243
▁اند	-244
▁خواه	-245
▁اص	-246
قت	-247
▁دانش	-248
▁جه	-249
▁پر	-250
▁داد	-251
اي	-252
▁کم	-253
▁کشور	-254
▁باید	-255
فاده	-256
▁ساز	-257
▁:	-258
▁عل	-259
اند	-260
فته	-261
هم	-262
خص	-263
ورت	-264
وت	-265
دم	-266
▁استفاده	-267
▁۲	-268
▁كه	-269
▁نمی	-270
▁نظر	-271
قل	-272
▁کند	-273
وش	-274
▁وی	-275
▁پیش	-276
يد	-277
▁مورد	-278
▁توان	-279
▁سی	-280
▁نام	-281
جود	-282
نا	-283
▁پس	-284
▁اما	-285
مین	-286
اسی	-287
▁اد	-288
وه	-289
یری	-290
▁اع	-291
▁اگر	-292
▁زی	-293
▁تص	-294
قه	-295
▁راه	-296
▁قرار	-297
بار	-298
▁گذ	-299
کل	-300
کس	-301
گان	-302
شه	-303
▁اح	-304
نامه	-305
شد	-306
▁اين	-307
ونه	-308
▁حال	-309
امل	-310
▁بین	-311
توان	-312
فا	-313
لود	-314
رم	-315
▁نیز	-316
وند	-317
یه	-318
▁دیگر	-319
▁تن	-320
اط	-321
زش	-322
جام	-323
▁ي	-324
▁۱۳	-325
شود	-326
▁پای	-327
▁داشت	-328
هنگ	-329
▁اط	-330
ترین	-331
▁کرده	-332
▁شهر	-333
رکت	-334
▁اخ	-335
بان	-336
▁سایت	-337
ير	-338
▁اسلام	-339
▁بز	-340
▁کل	-341
▁نیست	-342
▁خبر	-343
امی	-344
▁ض	-345
▁سو	-346
▁بازی	-347
اص	-348
▁دور	-349
▁حس	-350
ره	-351
وع	-352
دار	-353
یس	-354
▁همه	-355
نج	-356
وق	-357
رای	-358
▁هی	-359
▁آموز	-360
▁زمان	-361
▁صورت	-362
▁روی	-363
▁افز	-364
▁جدید	-365
▁حق	-366
▁اول	-367
▁ات	-368
ونی	-369
▁نق	-370
▁آنها	-371
▁توس	-372
▁شه	-373
فی	-374
▁زند	-375
یده	-376
▁بسی	-377
▁کنند	-378
▁دانلود	-379
ریک	-380
▁مص	-381
▁وجود	-382
شان	-383
اتی	-384
▁ماه	-385
مت	-386
گه	-387
▁ث	-388
▁مردم	-389
چه	-390
ه‌های	-391
کان	-392
▁خر	-393
▁اش	-394
اح	-395
▁آز	-396
شتر	-397
▁چند	-398
▁قب	-399
▁انجام	-400
وب	-401
▁استان	-402
حی	-403
▁چی	-404
سته	-405
لس	-406
▁شرکت	-407
ازی	-408
▁تع	-409
کت	-410
خی	-411
▁اطلا	-412
رس	-413
▁بعد	-414
لب	-415
▁ساخت	-416
▁ور	-417
▁خی	-418
▁هستند	-419
نین	-420
▁گو	-421
نوان	-422
▁مدیر	-423
▁حض	-424
کار	-425
▁مه	-426
▁خان	-427
▁دل	-428
▁آب	-429
ادر	-430
ایل	-431
جا	-432
▁۱۳۹	-433
▁نس	-434
رگ	-435
▁شب	-436
▁نه	-437
ابل	-438
▁یکی	-439
▁بگ	-440
خاب	-441
▁تب	-442
مد	-443
▁خواهد	-444
▁دول	-445
▁گرد	-446
شم	-447
تاب	-448
▁داشته	-449
▁بار	-450
▁جن	-451
عات	-452
▁زن	-453
رح	-454
اش	-455
لف	-456
رب	-457
▁فیل	-458
▁زیر	-459
مل	-460
▁کردن	-461
▁دید	-462
ارت	-463
▁شم	-464
▁3	-465
کرد	-466
▁تول	-467
ه‌ای	-468
سان	-469
▁انتخاب	-470
▁ارت	-471
▁بن	-472
ژه	-473
▁شن	-474
سال	-475
▁تج	-476
▁ذ	-477
▁مث	-478
▁اینکه	-479
هران	-480
▁عنوان	-481
▁فع	-482
ینی	-483
▁علی	-484
▁سه	-485
دام	-486
▁دانشگاه	-487
روز	-488
▁برنامه	-489
الب	-490
▁سازمان	-491
▁بخش	-492
بال	-493
تما	-494
▁بیشتر	-495
لو	-496
▁پرو	-497
مای	-498
ستم	-499
خو	-500
▁فرو	-501
مه	-502
▁گزار	-503
▁اسلامی	-504
باره	-505
وس	-506
رسی	-507
00	-508
▁رفت	-509
▁تهران	-510
ینه	-511
▁خدا	-512
▁سلام	-513
▁توجه	-514
▁آمریک	-515
مند	-516
▁برگ	-517
اض	-518
▁بزرگ	-519
▁همچ	-520
▁ری	-521
▁جام	-522
ازه	-523
▁تش	-524
▁گرفت	-525
رت	-526
▁پاس	-527
▁–	-528
▁اقت	-529
▁داده	-530
▁گزارش	-531
▁ولی	-532
▁می‌شود	-533
▁دولت	-534
▁فیلم	-535
▁گرو	-536
▁13	-537
▁نا	-538
▁زمین	-539
ستی	-540
▁شدن	-541
کند	-542
▁آموزش	-543
يت	-544
▁هن	-545
▁واق	-546
▁زندگی	-547
داشت	-548
▁بیم	-549
وص	-550
▁اق	-551
▁خار	-552
▁کتاب	-553
▁موض	-554
اور	-555
▁فرهنگ	-556
▁امام	-557
جی	-558
▁هیچ	-559
▁ند	-560
صد	-561
بری	-562
ضا	-563
▁نمای	-564
يم	-565
▁صف	-566
▁اقتص	-567
▁9	-568
ثر	-569
▁فعال	-570
▁دارند	-571
گیری	-572
▁تغ	-573
▁بسیار	-574
▁فق	-575
ــ	-576
▁تولید	-577
▁_	-578
راه	-579
▁مرا	-580
لیل	-581
▁تاری	-582
▁مان	-583
خر	-584
▁ادامه	-585
▁کس	-586
▁بوده	-587
▁کی	-588
گو	-589
▁کلی	-590
▁خط	-591
▁ظ	-592
▁همین	-593
▁توسط	-594
▁افر	-595
فه	-596
اک	-597
▁تمام	-598
▁گروه	-599
▁غیر	-600
▁پرد	-601
▁4	-602
▁وارد	-603
عیت	-604
بود	-605
▁مشکل	-606
▁خیلی	-607
▁امروز	-608
طه	-609
حه	-610
▁"	-611
▁بل	-612
جاد	-613
▁منت	-614
▁صن	-615
ولی	-616
ضی	-617
▁خرید	-618
▁تق	-619
▁مخت	-620
▁اجتما	-621
است	-622
▁ساعت	-623
۰۰	-624
▁موضوع	-625
▁پاسخ	-626
▁20	-627
نه	-628
اخت	-629
▁قیم	-630
کتر	-631
▁لی	-632
▁۳	-633
▁آمریکا	-634
▁نیاز	-635
دن	-636
▁مهم	-637
▁فروش	-638
دود	-639
گری	-640
▁…	-641
▁افزایش	-642
ائ	-643
رائ	-644
ابی	-645
▁عکس	-646
▁وب	-647
▁اب	-648
▁عمل	-649
▁حم	-650
▁سب	-651
▁بان	-652
▁جمه	-653
ویی	-654
ران	-655
▁قان	-656
▁حقوق	-657
سه	-658
▁کنیم	-659
گذ	-660
▁رئ	-661
▁خدم	-662
▁جای	-663
▁وز	-664
▁ثبت	-665
▁جهان	-666
خواه	-667
▁5	-668
▁,	-669
▁چرا	-670
باط	-671
▁قیمت	-672
ندی	-673
▁سپ	-674
▁روش	-675
پی	-676
▁همراه	-677
ویر	-678
وار	-679
▁مخ	-680
▁فرد	-681
▁میلی	-682
▁مست	-683
▁اطلاعات	-684
▁چهار	-685
▁بدون	-686
▁یه	-687
شار	-688
▁آر	-689
شر	-690
زه	-691
▁شی	-692
▁همان	-693
▁بع	-694
▁تنها	-695
▁درباره	-696
▁شو	-697
▁هزار	-698
▁مسئ	-699
قیق	-700
الات	-701
▁وق	-702
وط	-703
این	-704
راحی	-705
▁ایجاد	-706
▁فقط	-707
ه‌ها	-708
▁قط	-709
▁شور	-710
برد	-711
▁مل	-712
▁تیم	-713
▁ملی	-714
ظه	-715
▁آق	-716
▁اجتماعی	-717
هایی	-718
▁مرک	-719
▁تغی	-720
▁اه	-721
گونه	-722
ه‌ی	-723
▁حرف	-724
▁حضور	-725
▁بررسی	-726
▁۹	-727
بین	-728
اله	-729
▁وا	-730
▁افراد	-731
▁یاد	-732
▁اعلام	-733
نت	-734
▁بازار	-735
▁ایم	-736
▁دهد	-737
ومی	-738
▁جهت	-739
▁دوم	-740
يه	-741
کنند	-742
▁نشان	-743
▁بالا	-744
رات	-745
▁فار	-746
▁تل	-747
▁می‌توان	-748
▁تغییر	-749
▁نفر	-750
▁دخ	-751
▁گل	-752
صوص	-753
▁ارتباط	-754
▁شخص	-755
▁گرفته	-756
▁منط	-757
▁نرم	-758
▁کود	-759
ژی	-760
اسب	-761
▁قبل	-762
تان	-763
▁بال	-764
▁تاریخ	-765
مو	-766
▁سری	-767
▁آخر	-768
▁رئیس	-769
▁مي‌	-770
▁ترک	-771
▁پایان	-772
آن	-773
▁نمی‌	-774
▁ني	-775
ازم	-776
▁دریا	-777
▁کو	-778
▁دوست	-779
▁سنگ	-780
لاح	-781
▁برخی	-782
▁جز	-783
زان	-784
▁نامه	-785
صل	-786
▁علا	-787
▁زبان	-788
گرد	-789
▁طرح	-790
اهش	-791
▁چون	-792
▁پیام	-793
▁جو	-794
نان	-795
▁شک	-796
▁صفحه	-797
▁داخ	-798
▁کنم	-799
▁قابل	-800
▁عر	-801
مانی	-802
▁)	-803
گز	-804
یمی	-805
▁نسبت	-806
▁ایرانی	-807
صول	-808
فق	-809
▁به‌	-810
شنبه	-811
▁كرد	-812
▁مختلف	-813
▁خصوص	-814
▁همچنین	-815
▁انقل	-816
▁اشت	-817
▁اعت	-818
▁گی	-819
▁ندارد	-820
▁مب	-821
▁مدیریت	-822
داری	-823
▁رای	-824
▁پزش	-825
اران	-826
▁رسید	-827
اپ	-828
▁غذ	-829
▁انگ	-830
▁خوب	-831
▁هد	-832
▁شر	-833
دان	-834
▁اصلی	-835
▁نیر	-836
▁خانو	-837
▁ارسال	-838
يل	-839
▁واقع	-840
رایط	-841
▁شوند	-842
▁جوان	-843
مون	-844
▁انسان	-845
مال	-846
▁سخ	-847
▁دنی	-848
▁ته	-849
▁کام	-850
▁گذشته	-851
▁نمایش	-852
▁اون	-853
▁کمک	-854
▁شرایط	-855
▁مم	-856
▁پنج	-857
▁قس	-858
▁میان	-859
▁201	-860
هاي	-861
▁پرس	-862
▁جنگ	-863
▁بیان	-864
▁اخت	-865
ضای	-866
▁دلیل	-867
▁طب	-868
!!	-869
▁کاهش	-870
▁تعد	-871
▁می‌کند	-872
▁قانون	-873
▁نز	-874
▁اشاره	-875
ریق	-876
یاست	-877
▁امکان	-878
▁حتی	-879
▁افت	-880
▁محصول	-881
▁عب	-882
▁ره	-883
▁لب	-884
عث	-885
بته	-886
▁۴	-887
▁ترین	-888
▁جان	-889
▁بح	-890
▁نخ	-891
▁طراحی	-892
▁طرف	-893
▁دن	-894
▁قدر	-895
▁باعث	-896
▁خانه	-897
▁آیا	-898
▁کردند	-899
▁مطالب	-900
▁پي	-901
▁دختر	-902
▁خاط	-903
▁وقتی	-904
▁دوره	-905
▁انقلاب	-906
▁مى	-907
▁تأ	-908
▁پرداخت	-909
▁سیستم	-910
یدا	-911
▁هایی	-912
▁باشند	-913
▁صد	-914
گران	-915
▁هوا	-916
ابر	-917
▁۵	-918
▁/	-919
▁تک	-920
▁بودن	-921
▁وض	-922
▁دریافت	-923
▁جامعه	-924
▁مصرف	-925
▁دستگاه	-926
▁حک	-927
▁کسی	-928
باشد	-929
▁بیش	-930
▁آهنگ	-931
▁6	-932
▁آزاد	-933
▁ارائ	-934
طور	-935
▁رنگ	-936
▁كن	-937
▁درصد	-938
▁نمود	-939
▁براي	-940
جو	-941
▁سای	-942
▁يك	-943
▁۲۰	-944
▁جمهوری	-945
▁اساس	-946
▁خودرو	-947
یند	-948
▁فعالیت	-949
ودی	-950
▁مجلس	-951
▁البته	-952
یدی	-953
زارت	-954
▁معم	-955
▁[	-956
▁مانند	-957
▁عض	-958
تون	-959
▁کر	-960
▁پشت	-961
وست	-962
▁مذ	-963
زینه	-964
▁برخ	-965
ویت	-966
▁اقدام	-967
▁بهترین	-968
▁ارائه	-969
▁سف	-970
▁مرب	-971
▁مهر	-972
▁نوع	-973
صی	-974
▁ممکن	-975
▁امن	-976
▁وزارت	-977
ندان	-978
▁میکن	-979
▁اقتصادی	-980
اهی	-981
▁صح	-982
▁علوم	-983
▁مواد	-984
▁139	-985
▁وقت	-986
▁خوان	-987
▁مشت	-988
▁طور	-989
▁هاي	-990
▁توسعه	-991
اً	-992
▁يا	-993
ویس	-994
▁چشم	-995
▁بهتر	-996
▁آل	-997
▁شبکه	-998
▁کان	-999
عنی	-1000
▁سط	-1001
▁فکر	-1002
▁آقای	-1003
▁ژ	-1004
▁ندار	-1005
▁موفق	-1006
کاری	-1007
▁بودند	-1008
▁آغ	-1009
ذیر	-1010
لم	-1011
▁ست	-1012
▁پار	-1013
▁الله	-1014
▁کامل	-1015
▁منطقه	-1016
▁پیدا	-1017
▁بانک	-1018
شین	-1019
▁ابت	-1020
▁قسمت	-1021
▁افزار	-1022
▁حضرت	-1023
▁خدمات	-1024
▁نف	-1025
▁دنبال	-1026
▁باشید	-1027
▁خوش	-1028
▁مشخص	-1029
▁سن	-1030
▁قرآن	-1031
▁حل	-1032
▁طول	-1033
▁خاص	-1034
▁حوز	-1035
▁مثل	-1036
▁گفته	-1037
▁سیاسی	-1038
▁شورای	-1039
ریان	-1040
▁مالی	-1041
‌ال	-1042
▁هفته	-1043
▁دارای	-1044
صر	-1045
خش	-1046
▁8	-1047
▁نگاه	-1048
ثیر	-1049
▁جهانی	-1050
▁کاربر	-1051
لي	-1052
ینک	-1053
▁انتق	-1054
....	-1055
▁ویژه	-1056
▁متن	-1057
▁تلا	-1058
▁تف	-1059
▁عمومی	-1060
اري	-1061
▁تحقیق	-1062
▁حج	-1063
▁اینتر	-1064
▁بي	-1065
▁روح	-1066
▁شع	-1067
▁سرمای	-1068
یب	-1069
▁علیه	-1070
▁کیف	-1071
گیر	-1072
▁درمان	-1073
▁؟	-1074
▁لازم	-1075
▁علمی	-1076
▁یعنی	-1077
▁زمینه	-1078
ابع	-1079
▁فرم	-1080
▁جست	-1081
سر	-1082
▁فایل	-1083
▁7	-1084
▁خانواده	-1085
er	-1086
▁راب	-1087
▁آسی	-1088
ومت	-1089
نام	-1090
▁شاه	-1091
▁هدف	-1092
▁نور	-1093
▁نبود	-1094
▁نقش	-1095
▁اخبار	-1096
اتر	-1097
▁مناسب	-1098
ابت	-1099
▁اض	-1100
▁آغاز	-1101
▁تعداد	-1102
▁زیادی	-1103
▁رشته	-1104
▁تواند	-1105
ندگان	-1106
▁حساب	-1107
▁اي	-1108
▁قدرت	-1109
▁پیر	-1110
▁زنان	-1111
▁مدت	-1112
▁ارو	-1113
▁سازی	-1114
▁مطال	-1115
خانه	-1116
▁بده	-1117
▁افزود	-1118
▁کننده	-1119
جب	-1120
الت	-1121
▁نظام	-1122
▁وزیر	-1123
▁کردم	-1124
خه	-1125
▁بس	-1126
شناس	-1127
▁فرهنگی	-1128
▁آخرین	-1129
ورش	-1130
هن	-1131
▁(1	-1132
▁موجود	-1133
▁بدن	-1134
▁محمد	-1135
واره	-1136
رفی	-1137
▁منظ	-1138
▁پژ	-1139
▁مادر	-1140
یتی	-1141
▁استخ	-1142
▁مرت	-1143
مز	-1144
لق	-1145
▁آی	-1146
▁مشاه	-1147
▁تخ	-1148
▁پست	-1149
▁فرا	-1150
▁کسب	-1151
▁چگونه	-1152
ابق	-1153
▁مید	-1154
روع	-1155
▁طریق	-1156
سازی	-1157
▁منتشر	-1158
▁نفت	-1159
▁دکتر	-1160
▁بسیاری	-1161
ربی	-1162
▁حوزه	-1163
▁خاطر	-1164
▁شا	-1165
ه‌اند	-1166
▁شیر	-1167
▁جمله	-1168
▁تلاش	-1169
▁سفر	-1170
▁کا	-1171
▁اولین	-1172
▁اثر	-1173
▁چنین	-1174
▁دي	-1175
▁موارد	-1176
▁اطلاع	-1177
▁برابر	-1178
▁اقتصاد	-1179
فاوت	-1180
میم	-1181
▁شکل	-1182
▁مدل	-1183
▁برگزار	-1184
▁لینک	-1185
▁دارم	-1186
واج	-1187
جوی	-1188
یشه	-1189
▁هو	-1190
▁جا	-1191
▁قد	-1192
▁مشاهده	-1193
▁ضر	-1194
▁کاری	-1195
▁هنگ	-1196
▁كار	-1197
شناسی	-1198
▁نت	-1199
▁مرکز	-1200
ریم	-1201
هی	-1202
▁»	-1203
▁نوشته	-1204
ینده	-1205
انس	-1206
▁حدود	-1207
▁مف	-1208
▁مقاله	-1209
▁پزشکی	-1210
نم	-1211
ایج	-1212
▁مطلب	-1213
شنه	-1214
▁نتی	-1215
▁دنیا	-1216
▁زمانی	-1217
▁واح	-1218
اون	-1219
▁ارد	-1220
یط	-1221
خوا	-1222
▁می‌ده	-1223
▁۶	-1224
لاق	-1225
▁میلیون	-1226
▁فوت	-1227
▁دع	-1228
ادت	-1229
شون	-1230
اج	-1231
یره	-1232
▁سین	-1233
▁کنار	-1234
▁معرفی	-1235
▁محیط	-1236
▁محل	-1237
▁پژوه	-1238
▁رابطه	-1239
▁دیگری	-1240
▁امور	-1241
تو	-1242
پا	-1243
▁ازد	-1244
▁نقل	-1245
▁ارزش	-1246
بع	-1247
▁شماره	-1248
ري	-1249
▁احس	-1250
▁فرز	-1251
▁رشد	-1252
▁سطح	-1253
▁مشکلات	-1254
▁احت	-1255
in	-1256
▁+	-1257
امین	-1258
▁بیماری	-1259
▁ورزش	-1260
▁شروع	-1261
▁آذ	-1262
▁خرد	-1263
▁*	-1264
▁شدند	-1265
▁طبی	-1266
▁10	-1267
▁چیزی	-1268
ظهار	-1269
▁کوچ	-1270
▁لح	-1271
لاف	-1272
▁مبار	-1273
اسم	-1274
▁امید	-1275
▁عو	-1276
▁ورود	-1277
▁کمی	-1278
▁اظهار	-1279
▁خارج	-1280
قدر	-1281
ریف	-1282
ابط	-1283
گار	-1284
▁حاض	-1285
▁مربوط	-1286
▁سوی	-1287
کو	-1288
▁خون	-1289
▁چیز	-1290
▁نتیجه	-1291
▁ازدواج	-1292
ورده	-1293
▁گذا	-1294
▁بگیر	-1295
▁لط	-1296
▁جمع	-1297
▁فصل	-1298
▁تحت	-1299
▁درست	-1300
▁نخست	-1301
▁مسل	-1302
▁آنان	-1303
فع	-1304
خته	-1305
رخ	-1306
کیل	-1307
▁شنا	-1308
▁کیفیت	-1309
▁اینجا	-1310
▁پوش	-1311
▁وضعیت	-1312
▁انتخابات	-1313
▁آورد	-1314
▁خوبی	-1315
▁آینده	-1316
▁نیرو	-1317
▁منابع	-1318
مللی	-1319
▁میزان	-1320
▁هنوز	-1321
▁دهید	-1322
▁عرض	-1323
ئی	-1324
▁ارز	-1325
▁دادن	-1326
▁۱۰	-1327
▁میشه	-1328
▁تومان	-1329
▁۱۳۹۷	-1330
▁هزینه	-1331
▁رق	-1332
▁نخواه	-1333
جر	-1334
▁مرح	-1335
▁C	-1336
ستر	-1337
▁عالی	-1338
▁سیاست	-1339
▁حاضر	-1340
▁S	-1341
▁حمایت	-1342
▁وس	-1343
▁طی	-1344
▁A	-1345
▁۸	-1346
▁عق	-1347
واع	-1348
▁سام	-1349
▁بازدید	-1350
▁شهری	-1351
▁مقام	-1352
▁پدر	-1353
▁سوم	-1354
▁پذیر	-1355
▁برق	-1356
کنون	-1357
▁اضاف	-1358
▁مسئول	-1359
▁معن	-1360
▁زیب	-1361
▁نص	-1362
▁می‌کنند	-1363
▁برخورد	-1364
ترل	-1365
فاع	-1366
▁مستق	-1367
an	-1368
▁عزی	-1369
▁خواب	-1370
فظ	-1371
▁۷	-1372
انت	-1373
اهای	-1374
▁صنعت	-1375
▁کال	-1376
فاق	-1377
▁مهند	-1378
▁جلس	-1379
▁آمده	-1380
▁نشده	-1381
تل	-1382
▁فارسی	-1383
▁سرمایه	-1384
موعه	-1385
▁ماده	-1386
on	-1387
امپ	-1388
▁خارجی	-1389
▁سل	-1390
▁شاید	-1391
▁نوشت	-1392
▁جذ	-1393
▁تماس	-1394
▁انواع	-1395
ar	-1396
▁سلامت	-1397
▁تس	-1398
▁احساس	-1399
یدن	-1400
▁شنبه	-1401
▁نزدی	-1402
سب	-1403
مع	-1404
▁عملی	-1405
صه	-1406
▁جد	-1407
▁مغ	-1408
ظر	-1409
▁پیشنه	-1410
رافی	-1411
▁خبری	-1412
▁لو	-1413
▁شامل	-1414
▁لباس	-1415
گرام	-1416
▁بحث	-1417
▁پول	-1418
▁هنر	-1419
▁تصمیم	-1420
▁جلو	-1421
▁انتظ	-1422
▁تلف	-1423
▁الکتر	-1424
یز	-1425
ائل	-1426
▁آزمون	-1427
▁مقابل	-1428
نتی	-1429
گزاری	-1430
بیر	-1431
▁دهند	-1432
سم	-1433
وین	-1434
▁دوستان	-1435
▁مجموعه	-1436
▁روابط	-1437
▁آشن	-1438
▁انگلی	-1439
کید	-1440
▁تمامی	-1441
سلام	-1442
▁مز	-1443
▁اجرای	-1444
شوند	-1445
▁بتوان	-1446
▁معاون	-1447
لاگ	-1448
▁پروژه	-1449
ونم	-1450
▁سوال	-1451
ایع	-1452
▁دش	-1453
▁شهرستان	-1454
▁بندی	-1455
▁جشن	-1456
▁معت	-1457
؟؟	-1458
▁نیم	-1459
▁داخل	-1460
اشق	-1461
▁ول	-1462
▁تازه	-1463
▁متع	-1464
▁دیگه	-1465
▁عدم	-1466
▁حالا	-1467
▁حفظ	-1468
▁توانید	-1469
لاین	-1470
▁سایر	-1471
بط	-1472
▁درآ	-1473
▁داره	-1474
اویر	-1475
▁پوست	-1476
لیت	-1477
▁حدا	-1478
گي	-1479
▁اک	-1480
▁همیشه	-1481
▁نگه	-1482
راک	-1483
▁زیاد	-1484
▁انج	-1485
▁بهداشت	-1486
▁اتفاق	-1487
▁مک	-1488
نو	-1489
▁۱۳۹۶	-1490
▁“	-1491
▁آموزشی	-1492
▁فنا	-1493
▁‌	-1494
▁گوشی	-1495
وریه	-1496
▁مشاور	-1497
▁اجرا	-1498
▁حد	-1499
▁دلار	-1500
تش	-1501
رده	-1502
▁ممن	-1503
رفت	-1504
تن	-1505
▁آمد	-1506
لیغ	-1507
▁کنترل	-1508
▁محصولات	-1509
▁فرمان	-1510
▁انتشار	-1511
▁مدار	-1512
▁نب	-1513
حت	-1514
خواست	-1515
كن	-1516
ولو	-1517
▁عرا	-1518
▁فوق	-1519
شک	-1520
▁نکرد	-1521
▁موس	-1522
▁همکاری	-1523
▁خودش	-1524
▁کد	-1525
▁مال	-1526
▁پا	-1527
▁موسی	-1528
غان	-1529
▁علم	-1530
▁تبلیغ	-1531
▁اضافه	-1532
▁نمونه	-1533
▁۲۰۱	-1534
لیه	-1535
▁سخن	-1536
▁محدود	-1537
▁راست	-1538
بح	-1539
‌تر	-1540
▁انس	-1541
▁درد	-1542
▁تبد	-1543
▁عد	-1544
▁گردد	-1545
▁بسته	-1546
▁اخیر	-1547
اهم	-1548
▁هفت	-1549
تا	-1550
▁P	-1551
▁باشه	-1552
گذاری	-1553
شتی	-1554
▁بناب	-1555
▁خواست	-1556
▁منظور	-1557
▁خبرگزاری	-1558
▁لذ	-1559
▁0	-1560
▁ایمیل	-1561
.»	-1562
▁عضو	-1563
▁بند	-1564
▁تاثیر	-1565
جمه	-1566
سیه	-1567
يز	-1568
▁حا	-1569
▁موق	-1570
▁اصلاح	-1571
▁۰	-1572
▁مطرح	-1573
▁برگز	-1574
▁داخلی	-1575
▁تهیه	-1576
افی	-1577
▁روشن	-1578
▁۱۹	-1579
▁گوش	-1580
▁خورد	-1581
▁دقی	-1582
‌آ	-1583
▁دارید	-1584
▁الکترونی	-1585
▁معمول	-1586
▁روان	-1587
▁تشکیل	-1588
▁تخص	-1589
▁ایشان	-1590
▁احتمال	-1591
▁سخت	-1592
▁واحد	-1593
▁عش	-1594
گیرد	-1595
▁برد	-1596
▁فی	-1597
▁بگذ	-1598
‌هایی	-1599
▁هنگام	-1600
▁گردش	-1601
ي‌	-1602
كه	-1603
گل	-1604
▁رفتار	-1605
▁انجمن	-1606
▁شوید	-1607
▁شناس	-1608
▁داریم	-1609
or	-1610
پیم	-1611
رار	-1612
▁گونه	-1613
▁کاربران	-1614
▁دستور	-1615
▁کودک	-1616
▁فوتبال	-1617
▁دوران	-1618
)،	-1619
▁قوان	-1620
▁سمت	-1621
▁یافت	-1622
▁رود	-1623
يران	-1624
▁صرف	-1625
▁خداوند	-1626
▁M	-1627
کور	-1628
▁دفاع	-1629
▁آنچه	-1630
▁رض	-1631
▁ببین	-1632
▁حسین	-1633
▁جستجو	-1634
ظیم	-1635
▁آس	-1636
▁اندازه	-1637
وزی	-1638
▁حی	-1639
▁فناوری	-1640
▁داستان	-1641
▁ماشین	-1642
▁ویژ	-1643
▁نح	-1644
▁تیر	-1645
▁پژوهش	-1646
▁منبع	-1647
ثار	-1648
▁اپ	-1649
▁بلکه	-1650
تری	-1651
▁آش	-1652
▁سع	-1653
تح	-1654
زد	-1655
▁!	-1656
).	-1657
▁بیر	-1658
▁خانم	-1659
ادل	-1660
▁فشار	-1661
▁مراسم	-1662
▁سریال	-1663
راف	-1664
عتی	-1665
▁زیبا	-1666
▁چیست	-1667
▁رسانه	-1668
▁حالی	-1669
▁صادر	-1670
▁نویس	-1671
▁کوت	-1672
▁مراج	-1673
▁دیدگاه	-1674
▁اهم	-1675
▁تبدیل	-1676
▁سرو	-1677
▁فضای	-1678
▁اگه	-1679
▁ظرف	-1680
دای	-1681
▁مرگ	-1682
▁12	-1683
▁خبرنگ	-1684
▁پیشنهاد	-1685
▁ساله	-1686
▁دوباره	-1687
▁امر	-1688
▁ذکر	-1689
افق	-1690
▁اهل	-1691
رژی	-1692
▁کودکان	-1693
ریه	-1694
▁مستقیم	-1695
داد	-1696
▁سود	-1697
وبی	-1698
▁دقیقه	-1699
▁می‌کن	-1700
▁تصاویر	-1701
▁جریان	-1702
▁قطع	-1703
▁عزیز	-1704
▁رژ	-1705
▁حالت	-1706
▁دسته	-1707
روف	-1708
▁مرحله	-1709
‌اند	-1710
▁بهره	-1711
▁تصویر	-1712
حل	-1713
▁میل	-1714
▁بی‌	-1715
▁سرعت	-1716
▁رایگان	-1717
دهای	-1718
▁حمل	-1719
▁عراق	-1720
▁گذاری	-1721
▁اید	-1722
▁گیری	-1723
▁داشتن	-1724
▁خصوصی	-1725
▁استاند	-1726
▁کلیک	-1727
▁مشه	-1728
▁طبیعی	-1729
▁مرکزی	-1730
وال	-1731
▁ضمن	-1732
ربه	-1733
▁کوچک	-1734
▁علت	-1735
▁ویر	-1736
▁نخواهد	-1737
▁عرب	-1738
▁گیرد	-1739
▁کشورهای	-1740
▁صبح	-1741
راین	-1742
▁آن‌ها	-1743
▁آنلاین	-1744
▁پایگاه	-1745
▁جواب	-1746
▁دیدار	-1747
▁محس	-1748
▁۱۲	-1749
▁نسخه	-1750
▁روسیه	-1751
▁جلسه	-1752
▁نکن	-1753
يا	-1754
حال	-1755
▁خواهند	-1756
▁جمهور	-1757
عیین	-1758
▁موجب	-1759
▁(1)	-1760
مدی	-1761
▁عامل	-1762
دین	-1763
▁هوش	-1764
▁طبق	-1765
▁پل	-1766
▁ارشد	-1767
▁امنیت	-1768
▁الع	-1769
▁قهر	-1770
▁ساختمان	-1771
▁اختی	-1772
‌ترین	-1773
▁آماده	-1774
▁بعضی	-1775
▁مسائل	-1776
▁می‌دهد	-1777
▁کلیه	-1778
▁روست	-1779
▁سوریه	-1780
ابه	-1781
▁سپس	-1782
▁فل	-1783
▁تی	-1784
▁تعیین	-1785
▁بینی	-1786
▁تجربه	-1787
▁نما	-1788
▁حرکت	-1789
فند	-1790
▁متر	-1791
▁اروپا	-1792
▁بیمار	-1793
▁بنابراین	-1794
▁سوالات	-1795
▁وح	-1796
ابان	-1797
▁بدان	-1798
▁قوانین	-1799
▁الان	-1800
▁میلیارد	-1801
▁خطر	-1802
▁میتوان	-1803
▁تور	-1804
▁رهبر	-1805
▁پلی	-1806
کته	-1807
▁ملت	-1808
ندگی	-1809
پر	-1810
▁بچه	-1811
▁علاوه	-1812
▁سرد	-1813
▁شهید	-1814
▁ايران	-1815
▁کاملا	-1816
▁بو	-1817
▁تد	-1818
▁دشمن	-1819
▁صدا	-1820
▁بلند	-1821
▁موسیقی	-1822
▁آرام	-1823
▁توضی	-1824
▁فرمود	-1825
ایه	-1826
طان	-1827
▁نداشت	-1828
▁عبار	-1829
▁حذ	-1830
▁ساده	-1831
▁روحانی	-1832
▁فرص	-1833
اسان	-1834
▁19	-1835
تور	-1836
▁نشست	-1837
▁مؤ	-1838
▁ابر	-1839
▁میز	-1840
▁نزدیک	-1841
▁نصب	-1842
▁انرژی	-1843
▁سیم	-1844
▁مقا	-1845
▁استاد	-1846
ابد	-1847
▁مهندسی	-1848
زل	-1849
▁السلام	-1850
▁مطالعه	-1851
▁مناط	-1852
▁گرفتن	-1853
▁کمتر	-1854
شا	-1855
▁جل	-1856
ویزی	-1857
ریح	-1858
▁بودم	-1859
چار	-1860
▁بپ	-1861
ستگی	-1862
▁اعتر	-1863
بات	-1864
▁لطفا	-1865
▁پرورش	-1866
▁کسانی	-1867
داشته	-1868
▁شخصی	-1869
▁درس	-1870
▁می‌تواند	-1871
▁توی	-1872
▁دین	-1873
▁گیر	-1874
▁خدمت	-1875
▁پسر	-1876
▁انسانی	-1877
گاهی	-1878
▁اصفه	-1879
▁توضیح	-1880
▁صحبت	-1881
▁پن	-1882
سل	-1883
‌ب	-1884
▁ديگر	-1885
▁کاربرد	-1886
▁عملکرد	-1887
▁ـ	-1888
▁رژیم	-1889
▁زد	-1890
کش	-1891
▁دری	-1892
▁فارس	-1893
قد	-1894
▁بهمن	-1895
▁زیرا	-1896
▁ترامپ	-1897
▁نيز	-1898
▁اختیار	-1899
شتری	-1900
▁آدم	-1901
ورتی	-1902
▁غذایی	-1903
چی	-1904
غال	-1905
فتر	-1906
▁‏	-1907
ادث	-1908
▁روزنامه	-1909
ویه	-1910
▁نماز	-1911
▁ساخته	-1912
▁گذاشت	-1913
▁حمله	-1914
▁آتش	-1915
▁تلویزی	-1916
▁انتقال	-1917
▁مسیر	-1918
▁دیگران	-1919
▁گرم	-1920
at	-1921
▁عاشق	-1922
وتی	-1923
▁15	-1924
▁هستیم	-1925
▁افغان	-1926
▁مقر	-1927
▁نرخ	-1928
▁پایین	-1929
▁تای	-1930
▁استقل	-1931
▁تحریم	-1932
▁المللی	-1933
▁اینترنتی	-1934
ادگی	-1935
▁ظاه	-1936
گفت	-1937
▁دانشجوی	-1938
▁دارو	-1939
es	-1940
ابقه	-1941
گون	-1942
▁لا	-1943
▁D	-1944
رز	-1945
▁رسمی	-1946
الم	-1947
▁عشق	-1948
▁نتایج	-1949
ماد	-1950
وران	-1951
كت	-1952
▁اداره	-1953
▁برس	-1954
▁زم	-1955
▁مناطق	-1956
▁درخواست	-1957
اها	-1958
▁شکن	-1959
▁انگلیسی	-1960
▁برگزاری	-1961
▁دقیق	-1962
صیل	-1963
▁ماند	-1964
▁برنام	-1965
▁انتظار	-1966
▁خام	-1967
▁پخش	-1968
▁وظ	-1969
▁ویژگی	-1970
▁ابتدا	-1971
▁خرداد	-1972
▁نمایید	-1973
▁دام	-1974
▁پاک	-1975
▁کارت	-1976
وله	-1977
خصوص	-1978
▁جمعه	-1979
▁باشگاه	-1980
صورت	-1981
▁مخال	-1982
▁خودم	-1983
▁متح	-1984
▁فلس	-1985
▁كش	-1986
▁آیت	-1987
بانی	-1988
▁تاب	-1989
▁عوامل	-1990
▁کافی	-1991
▁متفاوت	-1992
▁مسا	-1993
▁حذف	-1994
▁موفقیت	-1995
نگی	-1996
▁وبلاگ	-1997
▁کوتاه	-1998
▁هستید	-1999
▁فنی	-2000
▁می‌گو	-2001
▁دفتر	-2002
▁تاکید	-2003
غل	-2004
ساز	-2005
ولوژی	-2006
▁اصول	-2007
▁تلفن	-2008
▁جنسی	-2009
▁خراسان	-2010
▁استقلال	-2011
▁بخو	-2012
▁هواپیم	-2013
‌هاي	-2014
▁قاب	-2015
صاص	-2016
وتر	-2017
al	-2018
▁بايد	-2019
▁اصفهان	-2020
▁دیده	-2021
▁مدرس	-2022
▁میشود	-2023
▁بنی	-2024
▁همسر	-2025
کنان	-2026
▁لیگ	-2027
▁تصو	-2028
▁جدا	-2029
▁كند	-2030
▁اجازه	-2031
▁نظامی	-2032
▁سبک	-2033
▁نگر	-2034
▁تلگرام	-2035
▁بیشتری	-2036
▁مار	-2037
اى	-2038
وانی	-2039
▁رسان	-2040
▁رفتن	-2041
▁اشتب	-2042
▁اصل	-2043
▁نیروی	-2044
▁مقالات	-2045
ریب	-2046
▁حسن	-2047
▁آثار	-2048
طر	-2049
▁سریع	-2050
▁اصلا	-2051
▁نباید	-2052
▁شهرد	-2053
▁اهمیت	-2054
▁ورز	-2055
▁اعضای	-2056
رین	-2057
ــــ	-2058
▁ضد	-2059
نش	-2060
▁نج	-2061
وید	-2062
مانان	-2063
▁۱۱	-2064
▁روند	-2065
▁کدام	-2066
▁زي	-2067
▁سید	-2068
اسه	-2069
اکر	-2070
▁زیست	-2071
▁اهدا	-2072
▁عرو	-2073
▁قرارد	-2074
▁رضا	-2075
▁عبارت	-2076
▁اکنون	-2077
ضایی	-2078
▁فرصت	-2079
▁نکته	-2080
امت	-2081
ir	-2082
▁قالب	-2083
▁اتاق	-2084
▁نیروهای	-2085
▁تنظیم	-2086
قق	-2087
▁سي	-2088
▁ریاست	-2089
▁حرفه	-2090
▁فراهم	-2091
▁ترکیه	-2092
مر	-2093
روی	-2094
▁اشتراک	-2095
▁موتور	-2096
▁باور	-2097
گوی	-2098
▁تامین	-2099
▁واقعا	-2100
▁قبول	-2101
▁نار	-2102
ستانی	-2103
▁عمر	-2104
▁مجاز	-2105
▁اینترنت	-2106
▁تکن	-2107
▁برتر	-2108
▁حتما	-2109
بور	-2110
لات	-2111
▁زیبایی	-2112
▁11	-2113
ینگ	-2114
لال	-2115
▁ترب	-2116
▁آسیب	-2117
▁۱۵	-2118
▁حداقل	-2119
قیه	-2120
ژاد	-2121
▁T	-2122
▁شکست	-2123
▁چاپ	-2124
▁چین	-2125
▁درو	-2126
ظم	-2127
▁کشاور	-2128
▁B	-2129
▁اسپ	-2130
▁رهبری	-2131
۱۳	-2132
▁....	-2133
▁فرزند	-2134
▁صنعتی	-2135
▁سبز	-2136
▁می‌شوند	-2137
▁رفته	-2138
▁I	-2139
▁هستم	-2140
▁شدم	-2141
▁نظرات	-2142
باش	-2143
▁دچار	-2144
اصل	-2145
▁متو	-2146
om	-2147
▁کیل	-2148
▁بیرون	-2149
▁طلا	-2150
ئو	-2151
▁جشنواره	-2152
en	-2153
▁نهاد	-2154
▁لغ	-2155
▁رییس	-2156
▁متعلق	-2157
▁نماینده	-2158
▁سعی	-2159
▁صنایع	-2160
▁اعتماد	-2161
▁زنده	-2162
‌پ	-2163
بیل	-2164
▁مرتبط	-2165
▁حقی	-2166
▁باشیم	-2167
▁کامپی	-2168
ايي	-2169
کنش	-2170
▁غرب	-2171
يس	-2172
▁بگذار	-2173
▁کانال	-2174
▁مثلا	-2175
▁بش	-2176
فو	-2177
▁امیر	-2178
▁جالب	-2179
دال	-2180
▁جامع	-2181
▁کاربری	-2182
امبر	-2183
▁هشت	-2184
▁موب	-2185
▁تحلیل	-2186
چسب	-2187
▁مراجعه	-2188
سا	-2189
▁آبان	-2190
▁صورتی	-2191
▁خرو	-2192
▁عرضه	-2193
▁رح	-2194
سیون	-2195
▁اختصاص	-2196
▁تجارت	-2197
▁تخصصی	-2198
▁کنه	-2199
▁مذاکر	-2200
رایی	-2201
▁مبت	-2202
▁افغانستان	-2203
▁اشتباه	-2204
▁ابزار	-2205
▁حکومت	-2206
▁دولتی	-2207
▁اسم	-2208
جان	-2209
شده	-2210
▁خلا	-2211
▁چنان	-2212
▁زود	-2213
▁سق	-2214
داران	-2215
▁تروری	-2216
▁بیمه	-2217
زین	-2218
▁آور	-2219
▁قل	-2220
▁H	-2221
▁اعتراض	-2222
▁14	-2223
دهم	-2224
▁بازگ	-2225
▁فروشگاه	-2226
ارش	-2227
▁وزن	-2228
▁وسی	-2229
درس	-2230
▁بهبود	-2231
▁توص	-2232
اظ	-2233
▁محم	-2234
▁عملیات	-2235
باز	-2236
▁درون	-2237
▁کارشناس	-2238
بهشت	-2239
▁کف	-2240
خیص	-2241
قا	-2242
▁ارزی	-2243
سیم	-2244
عکس	-2245
▁جنوبی	-2246
▁مثال	-2247
▁نحوه	-2248
▁درآمد	-2249
مایش	-2250
مینی	-2251
▁زده	-2252
کا	-2253
▁مقد	-2254
▁گوگل	-2255
ازند	-2256
▁حر	-2257
▁پیامبر	-2258
يش	-2259
▁معل	-2260
▁ورزشی	-2261
لت	-2262
▁جذب	-2263
وره	-2264
▁اسفند	-2265
▁سراس	-2266
▁تجاری	-2267
▁جوانان	-2268
▁بروز	-2269
▁فران	-2270
▁علاقه	-2271
▁نداشته	-2272
‌و	-2273
▁مشترک	-2274
▁یافته	-2275
▁فرام	-2276
▁بعدی	-2277
▁خیابان	-2278
▁مبارزه	-2279
گذار	-2280
▁قصد	-2281
▁نفس	-2282
▁جلوگیری	-2283
▁دانست	-2284
▁میکنم	-2285
▁مسئله	-2286
▁آمار	-2287
جم	-2288
▁قرارداد	-2289
▁گاز	-2290
▁آزادی	-2291
جد	-2292
▁پایه	-2293
▁امتی	-2294
اجه	-2295
▁همس	-2296
▁بزر	-2297
▁میدان	-2298
▁غذا	-2299
▁بارد	-2300
▁دانشجویان	-2301
▁بخشی	-2302
▁آذر	-2303
▁عربستان	-2304
▁داشتند	-2305
▁قابلیت	-2306
▁کارشناسی	-2307
ولیت	-2308
▁سرویس	-2309
▁بخوان	-2310
قي	-2311
▁مناس	-2312
جوان	-2313
▁رسانی	-2314
▁راهن	-2315
▁عه	-2316
▁می‌کرد	-2317
▁۱۳۹۵	-2318
▁خاک	-2319
▁استخدام	-2320
▁طل	-2321
اسیون	-2322
يان	-2323
▁مفید	-2324
▁تجه	-2325
▁واقعی	-2326
▁ندارند	-2327
زب	-2328
فانه	-2329
▁تحصیل	-2330
▁شان	-2331
▁لیست	-2332
خصص	-2333
▁توافق	-2334
▁اساسی	-2335
▁چهارم	-2336
▁سپاه	-2337
▁موبایل	-2338
▁آنجا	-2339
▁خواهید	-2340
▁تحقیقات	-2341
▁يک	-2342
▁مقدار	-2343
▁مجازی	-2344
▁انگی	-2345
میل	-2346
▁واکنش	-2347
▁رع	-2348
▁چهر	-2349
▁رز	-2350
ورا	-2351
▁R	-2352
▁خارجه	-2353
مندان	-2354
▁داری	-2355
▁کجا	-2356
پولی	-2357
کتری	-2358
▁رفع	-2359
▁شناسی	-2360
طی	-2361
▁شاهد	-2362
▁قانونی	-2363
▁چقدر	-2364
▁مذه	-2365
▁الم	-2366
»،	-2367
يي	-2368
ئت	-2369
▁اهداف	-2370
▁آپ	-2371
▁نظری	-2372
شاه	-2373
▁صدای	-2374
▁تبلیغات	-2375
هایت	-2376
▁وال	-2377
▁بور	-2378
▁متخصص	-2379
▁اتح	-2380
▁معروف	-2381
▁پرونده	-2382
▁توانند	-2383
▁صاد	-2384
▁جایی	-2385
▁مسابق	-2386
▁کرمان	-2387
▁زدن	-2388
▁نماید	-2389
▁؛	-2390
▁عبور	-2391
عف	-2392
▁ایست	-2393
▁۱۸	-2394
▁F	-2395
▁اعمال	-2396
▁تشخیص	-2397
▁غربی	-2398
▁تاریخی	-2399
روم	-2400
▁عز	-2401
▁قلب	-2402
▁ناب	-2403
▁صاح	-2404
جع	-2405
▁بست	-2406
▁بين	-2407
یک	-2408
▁كم	-2409
میر	-2410
▁گیاه	-2411
روش	-2412
▁گستر	-2413
يك	-2414
▁هند	-2415
▁برچسب	-2416
وف	-2417
▁گردشگری	-2418
بیه	-2419
▁مشاوره	-2420
▁گست	-2421
▁ظرفیت	-2422
▁تصویری	-2423
▁پیشرفت	-2424
▁ادبی	-2425
▁جدی	-2426
کری	-2427
▁ارتش	-2428
او	-2429
▁تفاوت	-2430
▁مدا	-2431
کلی	-2432
دها	-2433
▁درجه	-2434
▁شمالی	-2435
▁امنیتی	-2436
▁فردا	-2437
▁بزن	-2438
▁دعوت	-2439
▁سامانه	-2440
▁صند	-2441
▁کشاورزی	-2442
▁اندرو	-2443
▁گفتم	-2444
زمان	-2445
▁۱۴	-2446
▁گن	-2447
▁شدید	-2448
▁افرادی	-2449
افظ	-2450
▁نموده	-2451
▁می‌آ	-2452
▁دیر	-2453
▁هتل	-2454
▁تجهیز	-2455
▁مدیران	-2456
رود	-2457
▁بالاتر	-2458
▁امتیاز	-2459
20	-2460
▁2018	-2461
▁سفید	-2462
▁رسیدن	-2463
مات	-2464
▁بلو	-2465
▁بودجه	-2466
▁توصیه	-2467
▁گذشت	-2468
▁حاصل	-2469
▁دسترسی	-2470
▁مسابقات	-2471
▁اور	-2472
ریز	-2473
▁G	-2474
le	-2475
اصله	-2476
▁آدرس	-2477
▁شعر	-2478
▁گاهی	-2479
▁..	-2480
▁دوربین	-2481
▁دادند	-2482
▁تلویزیون	-2483
▁حو	-2484
ناک	-2485
▁نک	-2486
▁کره	-2487
▁ران	-2488
▁آزمایش	-2489
▁برجام	-2490
▁رخ	-2491
▁شخصیت	-2492
▁محک	-2493
▁مدرسه	-2494
▁شمار	-2495
-1	-2496
▁بازگشت	-2497
▁رم	-2498
ونا	-2499
▁رادی	-2500
▁مخصوص	-2501
▁ترجمه	-2502
زیک	-2503
▁قم	-2504
▁18	-2505
▁کردیم	-2506
▁اغ	-2507
▁مرداد	-2508
فون	-2509
‌ن	-2510
▁الکترونیک	-2511
▁نيست	-2512
▁پرسپولی	-2513
▁مخاط	-2514
▁مام	-2515
▁مسافر	-2516
▁کامپیوتر	-2517
انو	-2518
▁بای	-2519
▁ذهن	-2520
ناد	-2521
زا	-2522
▁پرسش	-2523
▁اث	-2524
▁حزب	-2525
▁آبی	-2526
يده	-2527
▁30	-2528
ربایج	-2529
▁امسال	-2530
▁ثابت	-2531
▁اولیه	-2532
▁امیدوار	-2533
▁دستی	-2534
▁نخستین	-2535
▁لحظه	-2536
حس	-2537
▁مردان	-2538
شو	-2539
▁گم	-2540
رانی	-2541
▁بگو	-2542
▁مقدس	-2543
▁رسیده	-2544
▁ذخ	-2545
▁رت	-2546
▁آمریکایی	-2547
▁مقای	-2548
▁مواجه	-2549
▁زندان	-2550
▁فرانسه	-2551
▁برند	-2552
▁پوشش	-2553
▁ریزی	-2554
وک	-2555
خوان	-2556
▁تعریف	-2557
▁پاي	-2558
▁روغ	-2559
؟!	-2560
▁مها	-2561
▁مهارت	-2562
▁حجم	-2563
▁رقابت	-2564
▁باب	-2565
▁آید	-2566
».	-2567
▁بالای	-2568
▁مهدی	-2569
▁انتقاد	-2570
ختی	-2571
میز	-2572
▁فرمانده	-2573
▁مرز	-2574
▁بشه	-2575
▁رد	-2576
▁استق	-2577
▁برداری	-2578
ماه	-2579
▁خوا	-2580
▁بشر	-2581
▁بگیرید	-2582
یبهشت	-2583
▁دبیر	-2584
▁می‌باشد	-2585
▁اجرایی	-2586
▁تان	-2587
ربایجان	-2588
دیگر	-2589
▁حکم	-2590
▁مجد	-2591
▁ماهی	-2592
▁شهادت	-2593
عده	-2594
▁مکان	-2595
▁مصاح	-2596
يار	-2597
▁نمایشگاه	-2598
▁چهارشنبه	-2599
▁فاصله	-2600
▁زنج	-2601
▁عصر	-2602
▁كشور	-2603
کز	-2604
وقی	-2605
▁کنی	-2606
▁نقشه	-2607
▁پرسپولیس	-2608
▁دهه	-2609
▁95	-2610
▁دندان	-2611
▁فرورد	-2612
▁سینما	-2613
▁مقاومت	-2614
لاک	-2615
▁ببر	-2616
▁ادع	-2617
▁هي	-2618
▁نوجوان	-2619
▁میده	-2620
وج	-2621
▁ترس	-2622
یبانی	-2623
▁روزانه	-2624
▁هوشمند	-2625
▁امکانات	-2626
حتی	-2627
▁شهریور	-2628
▁آذربایجان	-2629
▁شش	-2630
▁اردیبهشت	-2631
▁مقایسه	-2632
▁گسترش	-2633
▁اسرائ	-2634
▁16	-2635
▁بب	-2636
▁دم	-2637
▁تقویت	-2638
▁طبقه	-2639
▁دقت	-2640
▁آورده	-2641
نز	-2642
▁مسکن	-2643
▁متوجه	-2644
▁مقررات	-2645
▁فهر	-2646
▁اختلاف	-2647
▁•	-2648
▁بیت	-2649
▁فراموش	-2650
▁وي	-2651
▁اقدامات	-2652
▁پشتیبانی	-2653
▁علام	-2654
▁نهایت	-2655
▁۱۶	-2656
it	-2657
▁حاک	-2658
▁سبب	-2659
▁روزی	-2660
▁روغن	-2661
▁فول	-2662
▁آلود	-2663
▁کارآ	-2664
یدم	-2665
▁نهایی	-2666
▁محور	-2667
كر	-2668
رسد	-2669
▁فرآ	-2670
▁شده‌اند	-2671
▁جمعیت	-2672
▁ویرایش	-2673
▁افتاد	-2674
فوظ	-2675
▁میباشد	-2676
▁تشکر	-2677
▁اعتبار	-2678
▁مبل	-2679
st	-2680
خان	-2681
▁شناخت	-2682
▁جنس	-2683
گویی	-2684
▁25	-2685
▁محت	-2686
▁عص	-2687
▁نظارت	-2688
نين	-2689
▁معمولا	-2690
▁شهرداری	-2691
کام	-2692
▁فن	-2693
▁محفوظ	-2694
گانه	-2695
▁سالم	-2696
▁کلاس	-2697
▁مطل	-2698
▁عجی	-2699
▁دوشنبه	-2700
يب	-2701
▁فردی	-2702
▁تکر	-2703
▁نویسنده	-2704
ic	-2705
▁مسئولان	-2706
افت	-2707
کسی	-2708
▁همچنان	-2709
▁این‌	-2710
▁پلیس	-2711
▁خواهیم	-2712
▁بخواه	-2713
▁دهنده	-2714
عهد	-2715
▁باد	-2716
▁گوید	-2717
▁آشنا	-2718
▁شهرو	-2719
شمی	-2720
▁خاصی	-2721
▁برادر	-2722
▁ممنون	-2723
▁رعایت	-2724
▁بین‌ال	-2725
▁نزد	-2726
گردد	-2727
ئن	-2728
▁باقی	-2729
وده	-2730
▁مثبت	-2731
▁سرطان	-2732
▁دینی	-2733
▁قدیمی	-2734
▁سیاه	-2735
▁بحران	-2736
▁قبلی	-2737
▁۳۰	-2738
▁پيش	-2739
▁آشنایی	-2740
▁200	-2741
▁نقد	-2742
▁کالا	-2743
▁سکه	-2744
▁L	-2745
▁رف	-2746
--	-2747
انیه	-2748
بد	-2749
▁خبرنگار	-2750
▁كرده	-2751
▁چهره	-2752
▁مشهد	-2753
▁منزل	-2754
▁خیر	-2755
▁تجهیزات	-2756
دامی	-2757
صیلی	-2758
▁مسئولیت	-2759
▁فهرست	-2760
لز	-2761
▁شدت	-2762
▁سهام	-2763
▁ترکیب	-2764
▁حقوقی	-2765
▁منجر	-2766
▁محسوب	-2767
ماند	-2768
ویش	-2769
▁۱۷	-2770
▁برخوردار	-2771
▁مرغ	-2772
▁بنده	-2773
▁مجله	-2774
am	-2775
علی	-2776
▁واب	-2777
▁کارهای	-2778
ازد	-2779
▁دادگاه	-2780
▁مخالف	-2781
▁فض	-2782
▁17	-2783
▁گاه	-2784
▁پدید	-2785
▁بنا	-2786
▁موثر	-2787
▁می‌گوید	-2788
گردان	-2789
▁نشد	-2790
ad	-2791
يري	-2792
▁97	-2793
▁رمز	-2794
▁24	-2795
▁محب	-2796
▁افس	-2797
▁برج	-2798
▁جراحی	-2799
▁مصاحبه	-2800
▁مقدم	-2801
▁گزینه	-2802
▁لذت	-2803
ویل	-2804
▁شناسایی	-2805
▁لای	-2806
▁فس	-2807
▁داشتم	-2808
▁رسد	-2809
▁شای	-2810
▁کشت	-2811
▁دنیای	-2812
▁E	-2813
▁حادث	-2814
▁هماه	-2815
▁راحت	-2816
▁مراکز	-2817
▁نقطه	-2818
▁کشته	-2819
▁نمایندگان	-2820
▁روزهای	-2821
▁تست	-2822
ac	-2823
کاران	-2824
▁کلید	-2825
▁پاد	-2826
▁شمال	-2827
▁درک	-2828
عي	-2829
▁لذا	-2830
▁نژاد	-2831
▁احمدی	-2832
▁هیات	-2833
▁مشار	-2834
▁1395	-2835
یته	-2836
▁وجه	-2837
▁لحاظ	-2838
▁محتو	-2839
▁تمرین	-2840
▁رتبه	-2841
▁بصورت	-2842
▁چطور	-2843
تیب	-2844
ارات	-2845
▁ظاهر	-2846
كان	-2847
▁ارزیابی	-2848
ينه	-2849
▁فرود	-2850
حیح	-2851
▁اندروید	-2852
▁سرز	-2853
▁آقا	-2854
▁سنت	-2855
▁تغییرات	-2856
▁راهنمای	-2857
▁جاری	-2858
▁حقیقت	-2859
ابله	-2860
▁تهدید	-2861
▁امتح	-2862
▁قا	-2863
▁عبدال	-2864
اساس	-2865
▁آلب	-2866
▁فرزندان	-2867
نمایی	-2868
▁جذاب	-2869
▁عهده	-2870
تم	-2871
▁سند	-2872
▁معنوی	-2873
▁اشک	-2874
۱۰	-2875
▁کشف	-2876
▁درمانی	-2877
ئم	-2878
▁كردن	-2879
گن	-2880
▁تایید	-2881
▁فروردین	-2882
ویسی	-2883
▁پاور	-2884
▁ناشی	-2885
▁براى	-2886
▁بیست	-2887
▁متوس	-2888
▁صفح	-2889
▁رسول	-2890
▁برداشت	-2891
▁اوم	-2892
▁ساختار	-2893
▁p	-2894
▁گام	-2895
▁متاس	-2896
وسی	-2897
▁۲۲	-2898
▁فهم	-2899
▁معظم	-2900
▁جایگاه	-2901
▁شاد	-2902
▁138	-2903
▁تئ	-2904
▁شرح	-2905
▁بیمارستان	-2906
▁آلمان	-2907
عش	-2908
▁مقابله	-2909
▁حاکم	-2910
▁می‌خواه	-2911
▁نیمه	-2912
رکز	-2913
رفته	-2914
▁مول	-2915
▁توانست	-2916
▁نمی‌توان	-2917
▁دیدن	-2918
▁نوز	-2919
سایت	-2920
▁آسیا	-2921
راح	-2922
راج	-2923
هام	-2924
ایند	-2925
▁مجوز	-2926
▁ملل	-2927
ریبا	-2928
▁آهن	-2929
▁تولد	-2930
▁معدن	-2931
▁کت	-2932
▁W	-2933
▁همواره	-2934
▁نمایند	-2935
زاده	-2936
▁ماج	-2937
رن	-2938
▁بازاری	-2939
▁پیروزی	-2940
▁موقع	-2941
▁صاحب	-2942
▁سنتی	-2943
▁مراق	-2944
▁نسل	-2945
▁اخلاق	-2946
▁سنج	-2947
▁الی	-2948
▁كنند	-2949
زستان	-2950
▁خوردن	-2951
▁مطم	-2952
▁خورش	-2953
عم	-2954
▁آگه	-2955
▁عضویت	-2956
▁۲۵	-2957
▁تحول	-2958
▁معماری	-2959
ro	-2960
▁بازیگر	-2961
ستا	-2962
ed	-2963
▁معنی	-2964
▁سوخت	-2965
▁(2	-2966
▁ارتباطات	-2967
▁طولانی	-2968
▁خلاصه	-2969
▁همچون	-2970
▁دهیم	-2971
▁جدیدی	-2972
▁تض	-2973
▁مشتریان	-2974
▁احتر	-2975
▁گفتگو	-2976
▁تحصیلی	-2977
اضی	-2978
قاد	-2979
▁هنری	-2980
▁آنکه	-2981
▁هوایی	-2982
▁خمینی	-2983
▁ماد	-2984
▁العاده	-2985
▁تصریح	-2986
▁ادبیات	-2987
▁مانده	-2988
▁حادثه	-2989
▁بارداری	-2990
▁قتل	-2991
▁جدول	-2992
▁ترتیب	-2993
اا	-2994
ئید	-2995
▁بورس	-2996
▁غل	-2997
▁۲۰۰	-2998
▁نیوز	-2999
▁لوازم	-3000
▁مگر	-3001
▁معتقد	-3002
▁یك	-3003
▁گران	-3004
▁گذاشته	-3005
▁ویند	-3006
▁براساس	-3007
▁توانایی	-3008
▁تغذ	-3009
▁سک	-3010
▁ندارم	-3011
▁تأثیر	-3012
ژن	-3013
ایر	-3014
▁قوی	-3015
▁صل	-3016
▁۱۳۹۴	-3017
عود	-3018
ارف	-3019
et	-3020
▁جزئی	-3021
▁قضا	-3022
▁بگذارید	-3023
▁یابد	-3024
غم	-3025
▁موقعیت	-3026
▁شاخص	-3027
▁N	-3028
▁100	-3029
▁آباد	-3030
▁بخوانید	-3031
▁جنوب	-3032
▁نقاط	-3033
▁ستاره	-3034
▁خوزستان	-3035
▁تربیت	-3036
▁راحتی	-3037
انیا	-3038
▁بم	-3039
يند	-3040
▁شوهر	-3041
▁سراسر	-3042
▁قرن	-3043
▁واقعیت	-3044
مندی	-3045
▁نکنید	-3046
سون	-3047
▁مشغ	-3048
▁عاشقانه	-3049
▁کمیسیون	-3050
گین	-3051
▁مدارس	-3052
گاری	-3053
▁خودتان	-3054
موع	-3055
▁باغ	-3056
▁احمد	-3057
▁صادق	-3058
▁کوه	-3059
▁هسته	-3060
▁خانگی	-3061
▁پیچ	-3062
کننده	-3063
▁حساس	-3064
▁شیمی	-3065
▁هرگز	-3066
▁الکترونیکی	-3067
طرف	-3068
بل	-3069
!!!	-3070
▁استرات	-3071
▁مراحل	-3072
▁کپی	-3073
13	-3074
نظر	-3075
▁پذ	-3076
▁قدم	-3077
▁امتحان	-3078
▁مجموع	-3079
▁نیستند	-3080
يات	-3081
▁چندین	-3082
▁میکند	-3083
▁خبرنگاران	-3084
▁وضع	-3085
▁آسان	-3086
▁عموم	-3087
وینت	-3088
▁دروغ	-3089
▁روزه	-3090
▁میخو	-3091
▁صادرات	-3092
▁s	-3093
▁اغلب	-3094
پس	-3095
ضان	-3096
ویب	-3097
▁نباشد	-3098
واز	-3099
شب	-3100
▁ریا	-3101
وي	-3102
▁کنکور	-3103
▁اشتغال	-3104
▁w	-3105
▁روب	-3106
اما	-3107
▁آفت	-3108
▁آلبوم	-3109
▁میکنه	-3110
▁متاسفانه	-3111
پار	-3112
▁تما	-3113
▁عجیب	-3114
▁خل	-3115
▁تقریبا	-3116
▁گسترده	-3117
▁سابق	-3118
▁نشود	-3119
ادار	-3120
▁مفه	-3121
▁ببینید	-3122
جویی	-3123
▁نشانه	-3124
▁اندازی	-3125
پرس	-3126
▁بهر	-3127
▁نداره	-3128
▁#	-3129
▁سفارش	-3130
▁خشک	-3131
▁خروج	-3132
▁امریک	-3133
▁ایده	-3134
▁پزشک	-3135
▁پرواز	-3136
▁کاربردی	-3137
▁یکدیگر	-3138
▁آوری	-3139
▁2-	-3140
بندی	-3141
▁الهی	-3142
▁تصویب	-3143
▁محبوب	-3144
▁۹۷	-3145
▁هنرم	-3146
صدی	-3147
لیم	-3148
یمان	-3149
▁سان	-3150
▁مختل	-3151
▁تکنولوژی	-3152
قای	-3153
الش	-3154
▁آگهی	-3155
قات	-3156
▁آگاه	-3157
▁بزرگترین	-3158
▁مسجد	-3159
▁مشارکت	-3160
▁مذهبی	-3161
زن	-3162
اع	-3163
۱۲	-3164
▁نکرده	-3165
▁کنندگان	-3166
▁مای	-3167
▁مشخصات	-3168
▁کلیدی	-3169
▁بین‌المللی	-3170
شهر	-3171
▁آفر	-3172
▁عدالت	-3173
▁۲۴	-3174
▁محتوای	-3175
▁می‌توانید	-3176
الله	-3177
▁استاندارد	-3178
▁·	-3179
▁سهم	-3180
▁لغو	-3181
▁بگیرد	-3182
▁فاط	-3183
▁توزی	-3184
▁محقق	-3185
▁آرامش	-3186
▁شناخته	-3187
▁قضایی	-3188
وذ	-3189
▁حرم	-3190
▁بافت	-3191
▁مشتری	-3192
یلات	-3193
▁آرز	-3194
▁كل	-3195
▁اسرائیل	-3196
ادیه	-3197
▁مرور	-3198
اندن	-3199
▁نباش	-3200
▁بيشتر	-3201
▁جی	-3202
▁1-	-3203
▁عقب	-3204
▁هاشمی	-3205
▁یکشنبه	-3206
▁صحنه	-3207
وطه	-3208
▁وظی	-3209
رض	-3210
▁وسیله	-3211
موز	-3212
پایی	-3213
▁باره	-3214
▁عن	-3215
▁کشتی	-3216
▁صحیح	-3217
▁درج	-3218
▁96	-3219
▁دلایل	-3220
رافیک	-3221
▁مشغول	-3222
اهیم	-3223
▁رضایت	-3224
▁پو	-3225
▁منفی	-3226
▁بدین	-3227
▁22	-3228
▁مشابه	-3229
‌الله	-3230
▁ویندوز	-3231
▁جنب	-3232
▁روي	-3233
▁همزمان	-3234
▁هیئت	-3235
▁سابقه	-3236
▁ذخیره	-3237
▁”	-3238
▁مغز	-3239
▁صندوق	-3240
ني	-3241
▁شیوه	-3242
▁اداری	-3243
▁نمیت	-3244
▁عدد	-3245
▁ستاد	-3246
▁خس	-3247
▁قول	-3248
▁تکمیل	-3249
▁بزرگی	-3250
▁21	-3251
▁توزیع	-3252
▁دهم	-3253
▁ممنوع	-3254
ion	-3255
▁تسه	-3256
▁تاکنون	-3257
▁متق	-3258
▁خودشان	-3259
▁مکانی	-3260
▁پیوند	-3261
▁گردید	-3262
▁ویت	-3263
▁هوای	-3264
فاظ	-3265
کرو	-3266
▁خسته	-3267
▁۱۳۸	-3268
▁آسمان	-3269
سي	-3270
▁اطلاعاتی	-3271
▁نظیر	-3272
▁نتوان	-3273
▁شبیه	-3274
▁تز	-3275
▁مطالعات	-3276
۲۰	-3277
▁شك	-3278
▁حدی	-3279
▁محتر	-3280
لیلی	-3281
ته	-3282
▁50	-3283
▁۲۱	-3284
▁رادیو	-3285
▁مگ	-3286
▁قبلا	-3287
▁کلمه	-3288
غه	-3289
▁عرصه	-3290
اتیک	-3291
مح	-3292
▁قرمز	-3293
الیا	-3294
▁مناف	-3295
is	-3296
▁ترا	-3297
▁بردن	-3298
▁مهمترین	-3299
▁جس	-3300
▁پارک	-3301
▁قادر	-3302
▁انداز	-3303
▁©	-3304
دایی	-3305
ریزی	-3306
as	-3307
سات	-3308
▁پور	-3309
گانی	-3310
طل	-3311
ag	-3312
▁ناز	-3313
▁تغذیه	-3314
▁روایت	-3315
ایم	-3316
▁کرب	-3317
ايت	-3318
▁فرست	-3319
▁تون	-3320
▁نمي	-3321
▁معنای	-3322
▁موسسه	-3323
امون	-3324
▁t	-3325
▁پذیرش	-3326
▁ولایت	-3327
▁حاشی	-3328
ئین	-3329
▁بازیکن	-3330
هاى	-3331
▁رست	-3332
▁عده	-3333
▁گناه	-3334
▁بازاریابی	-3335
▁صدور	-3336
▁۲۳	-3337
▁تقسیم	-3338
آوری	-3339
۰۰۰	-3340
……	-3341
▁سرا	-3342
▁سیر	-3343
▁اطراف	-3344
▁پیشرفته	-3345
▁دیدم	-3346
▁مبلغ	-3347
▁پیاده	-3348
َّ	-3349
▁سرم	-3350
▁شرقی	-3351
▁تحویل	-3352
▁گذار	-3353
▁خالی	-3354
he	-3355
▁کمیته	-3356
▁اکثر	-3357
▁احترام	-3358
▁استراتژی	-3359
▁جدیدترین	-3360
▁تفس	-3361
▁قلم	-3362
ایان	-3363
▁تقد	-3364
▁تکرار	-3365
▁اسناد	-3366
▁بنویس	-3367
كند	-3368
▁میتوانید	-3369
▁کرده‌اند	-3370
▁کلمات	-3371
▁کارگران	-3372
▁نفوذ	-3373
باب	-3374
▁وید	-3375
▁وعده	-3376
ثی	-3377
کده	-3378
▁شركت	-3379
▁واژه	-3380
اسلام	-3381
▁راهنمایی	-3382
باری	-3383
▁مجدد	-3384
▁اتحادیه	-3385
▁قی	-3386
▁بله	-3387
▁مادی	-3388
▁شف	-3389
▁نگهداری	-3390
يط	-3391
▁استاندار	-3392
▁جع	-3393
▁کمپ	-3394
▁واسه	-3395
▁آموزان	-3396
▁تاري	-3397
▁نوعی	-3398
re	-3399
▁ضروری	-3400
غذ	-3401
شنامه	-3402
▁مجبور	-3403
▁متعد	-3404
▁وظیفه	-3405
▁انداخت	-3406
روت	-3407
▁راهی	-3408
▁گوشت	-3409
▁اینها	-3410
▁مور	-3411
▁برده	-3412
10	-3413
▁نجات	-3414
▁دانشجو	-3415
▁افتخ	-3416
▁اعتقاد	-3417
▁کارشناسان	-3418
▁منو	-3419
▁بانکی	-3420
-0	-3421
**	-3422
▁سلول	-3423
احت	-3424
▁زاده	-3425
▁همون	-3426
▁تصور	-3427
▁مبارک	-3428
▁تری	-3429
▁تعط	-3430
▁هدایت	-3431
▁m	-3432
▁استخدامی	-3433
▁تخم	-3434
برداری	-3435
▁بدانید	-3436
دت	-3437
▁آیین	-3438
اشی	-3439
▁محلی	-3440
▁دف	-3441
▁2017	-3442
lo	-3443
▁سؤ	-3444
▁گونا	-3445
▁گیل	-3446
▁اخلا	-3447
▁عباس	-3448
کم	-3449
▁کارکنان	-3450
▁امروزه	-3451
▁c	-3452
000	-3453
▁سران	-3454
▁کنس	-3455
خره	-3456
▁رمضان	-3457
پوینت	-3458
▁عوض	-3459
▁پیشگیری	-3460
دهی	-3461
▁سنگین	-3462
▁آن‌	-3463
الد	-3464
▁همایش	-3465
▁نیازمند	-3466
▁عقل	-3467
▁داعش	-3468
▁آد	-3469
عاد	-3470
شدار	-3471
▁منص	-3472
▁برآ	-3473
▁منح	-3474
▁نوزاد	-3475
ايش	-3476
پرد	-3477
▁اذ	-3478
ادا	-3479
▁جستجوی	-3480
▁بهار	-3481
▁فساد	-3482
زام	-3483
▁گروهی	-3484
▁چار	-3485
▁مشکلی	-3486
▁۹۶	-3487
▁پرداز	-3488
ادن	-3489
بران	-3490
.[	-3491
30	-3492
▁آیه	-3493
▁بقیه	-3494
▁عمده	-3495
▁زلز	-3496
▁عروس	-3497
▁مي‌شود	-3498
الح	-3499
▁بهم	-3500
▁هيچ	-3501
▁منتظر	-3502
▁پیگیری	-3503
▁مجمع	-3504
▁معتبر	-3505
▁بازداشت	-3506
صاب	-3507
▁می‌گیرد	-3508
▁عنا	-3509
▁خلاف	-3510
مس	-3511
▁بلا	-3512
▁گفتند	-3513
‌جمه	-3514
▁پرت	-3515
▁بتواند	-3516
اطر	-3517
قان	-3518
▁رک	-3519
▁نشانی	-3520
▁می‌دان	-3521
▁بک	-3522
▁لر	-3523
▁زلزله	-3524
▁فرض	-3525
وگ	-3526
▁په	-3527
▁تقاض	-3528
▁خلق	-3529
▁سرک	-3530
▁خویش	-3531
▁مبانی	-3532
▁شعار	-3533
▁زخ	-3534
▁قوه	-3535
▁دختران	-3536
▁شغ	-3537
▁نگران	-3538
کتور	-3539
▁جاده	-3540
▁مسابقه	-3541
▁ترد	-3542
▁مسی	-3543
▁دیوار	-3544
▁سخنان	-3545
▁مختلفی	-3546
▁حجت	-3547
▁تند	-3548
▁درخت	-3549
دل	-3550
ing	-3551
▁حفاظ	-3552
▁خنده	-3553
ومتر	-3554
ه‌هایی	-3555
شاد	-3556
▁سرخ	-3557
▁شغل	-3558
عداد	-3559
▁دریایی	-3560
‌‌	-3561
گرم	-3562
▁خواندن	-3563
▁طوری	-3564
▁چک	-3565
▁تعهد	-3566
▁تبریک	-3567
▁جایگز	-3568
▁مساله	-3569
کنندگان	-3570
▁هرگونه	-3571
▁کارخانه	-3572
▁میکرد	-3573
▁مسلمانان	-3574
▁رضوی	-3575
وح	-3576
▁سخنرانی	-3577
▁می‌کنیم	-3578
▁آگاهی	-3579
))	-3580
میلی	-3581
▁می‌شد	-3582
دنی	-3583
▁انح	-3584
▁معی	-3585
▁مفهوم	-3586
▁فرار	-3587
خاص	-3588
▁ورد	-3589
▁ژاپ	-3590
▁پاورپوینت	-3591
▁نبوده	-3592
▁عادی	-3593
▁واردات	-3594
▁عین	-3595
▁طبیعت	-3596
▁مهاج	-3597
▁محترم	-3598
ملل	-3599
سنج	-3600
عیف	-3601
نوشت	-3602
▁جرم	-3603
▁فرودگاه	-3604
مرد	-3605
▁40	-3606
▁وابسته	-3607
▁خب	-3608
وریت	-3609
▁عربی	-3610
▁اطمین	-3611
▁2016	-3612
شید	-3613
▁چالش	-3614
‌ای	-3615
▁جور	-3616
▁دعا	-3617
▁باشم	-3618
▁تاريخ	-3619
▁برگشت	-3620
كرد	-3621
▁ناخ	-3622
▁برسد	-3623
▁باران	-3624
▁بچ	-3625
▁سقوط	-3626
▁مانع	-3627
۳۰	-3628
▁فدر	-3629
▁یون	-3630
۱۹	-3631
▁خواسته	-3632
▁تبریز	-3633
▁محکوم	-3634
خورد	-3635
▁پاید	-3636
▁علامت	-3637
▁فت	-3638
▁تدری	-3639
كار	-3640
▁بسيار	-3641
▁شرق	-3642
ّت	-3643
زای	-3644
مایی	-3645
▁فلسط	-3646
آور	-3647
▁رأ	-3648
▁مازند	-3649
▁هواپیما	-3650
▁شي	-3651
شویی	-3652
▁سینه	-3653
▁بوی	-3654
▁وسایل	-3655
▁اینستا	-3656
▁سلی	-3657
▁مهمی	-3658
ندم	-3659
▁تعدادی	-3660
عامل	-3661
▁خلی	-3662
▁صلح	-3663
▁کانون	-3664
▁راهکار	-3665
▁اطمینان	-3666
واری	-3667
▁حیوان	-3668
▁هشدار	-3669
▁برو	-3670
▁اصط	-3671
ه‌هاي	-3672
▁انگیز	-3673
▁جمعی	-3674
▁نکات	-3675
ay	-3676
▁سرزمین	-3677
▁متوسط	-3678
▁جزئیات	-3679
▁می‌توانند	-3680
جیت	-3681
▁پنجم	-3682
▁هج	-3683
▁بطور	-3684
▁رسیدگی	-3685
فیف	-3686
▁پرست	-3687
نای	-3688
▁مسلمان	-3689
دهد	-3690
▁بدی	-3691
ou	-3692
▁می‌دهند	-3693
چند	-3694
▁روانی	-3695
▁سعودی	-3696
▁گرامی	-3697
▁ایت	-3698
▁آوردن	-3699
▁کشورها	-3700
▁زير	-3701
▁صوتی	-3702
▁عالم	-3703
▁نياز	-3704
▁تأمین	-3705
▁حاشیه	-3706
ائی	-3707
عب	-3708
▁گشت	-3709
▁میوه	-3710
▁رده	-3711
▁فضا	-3712
▁رون	-3713
▁عوار	-3714
▁ویتامین	-3715
▁اکس	-3716
▁ناح	-3717
▁مند	-3718
ادي	-3719
▁زه	-3720
▁منافع	-3721
▁کمبود	-3722
▁امریکا	-3723
▁مذاکره	-3724
▁23	-3725
لیکی	-3726
▁بنیاد	-3727
▁تأکید	-3728
▁استرس	-3729
▁سالن	-3730
باح	-3731
▁منطق	-3732
▁ورودی	-3733
▁كنيد	-3734
▁O	-3735
▁طلب	-3736
▁مدرن	-3737
▁همين	-3738
▁منتقل	-3739
▁مناسبت	-3740
▁زنی	-3741
▁مشهور	-3742
▁درصدی	-3743
▁یادگیری	-3744
افظه	-3745
▁الف	-3746
▁بکن	-3747
▁دومین	-3748
▁میتون	-3749
▁عید	-3750
یداد	-3751
▁میلادی	-3752
ri	-3753
▁نویسی	-3754
▁نگاهی	-3755
▁قز	-3756
▁حاج	-3757
جایی	-3758
▁هم‌	-3759
▁انگلیس	-3760
اگر	-3761
▁معلوم	-3762
▁بودیم	-3763
ه‌اي	-3764
نس	-3765
▁ابعاد	-3766
▁غير	-3767
▁دلم	-3768
▁نگرانی	-3769
میه	-3770
▁سوز	-3771
/0	-3772
‌گذاری	-3773
el	-3774
▁استقبال	-3775
▁شده‌	-3776
3)	-3777
فل	-3778
▁دیجیت	-3779
▁شیخ	-3780
▁محسن	-3781
▁مذاکرات	-3782
اژ	-3783
▁صهی	-3784
▁متحده	-3785
▁فاطمه	-3786
▁اندیشه	-3787
▁ثروت	-3788
پذیر	-3789
▁مطمئن	-3790
▁معنا	-3791
▁شغلی	-3792
▁بوش	-3793
▁مقط	-3794
▁فلسفه	-3795
بهه	-3796
▁خور	-3797
▁شار	-3798
▁بیشترین	-3799
صال	-3800
يلي	-3801
▁پنه	-3802
▁پروت	-3803
▁کردید	-3804
▁آف	-3805
▁آفتاب	-3806
▁غر	-3807
▁جلب	-3808
▁شهرهای	-3809
▁حوادث	-3810
com	-3811
▁3-	-3812
▁دادم	-3813
▁ضربه	-3814
▁سايت	-3815
▁ضرورت	-3816
▁حداک	-3817
▁طراح	-3818
▁كتاب	-3819
▁عرف	-3820
▁موزیک	-3821
كي	-3822
▁افکار	-3823
▁مبتلا	-3824
أت	-3825
▁هنگامی	-3826
▁دسترس	-3827
▁سرمایه‌	-3828
جاوز	-3829
زر	-3830
▁اشخاص	-3831
۱۱	-3832
▁نمی‌شود	-3833
▁چپ	-3834
▁فراوان	-3835
▁ابتدای	-3836
▁پنجشنبه	-3837
▁بدست	-3838
▁میاد	-3839
▁مواردی	-3840
فرانس	-3841
▁حسینی	-3842
▁جهاد	-3843
▁لز	-3844
ژانس	-3845
▁اکر	-3846
▁عليه	-3847
▁اتوم	-3848
▁نوروز	-3849
▁کرمانشاه	-3850
ot	-3851
▁محتوا	-3852
▁ولي	-3853
▁ویکی	-3854
یی	-3855
ازدهم	-3856
مایید	-3857
▁V	-3858
یش	-3859
▁واس	-3860
▁پناه	-3861
ـــ	-3862
▁توق	-3863
▁روس	-3864
▁اینستاگرام	-3865
۰۲	-3866
جای	-3867
▁شیعه	-3868
▁چربی	-3869
▁مستند	-3870
اصر	-3871
▁طرز	-3872
▁سرور	-3873
▁۱۳۹۳	-3874
▁همانند	-3875
▁محمود	-3876
▁مدتی	-3877
▁انص	-3878
▁شرط	-3879
▁تحقق	-3880
▁پان	-3881
▁آرایش	-3882
▁کشوری	-3883
▁تعمیر	-3884
▁داوط	-3885
▁می‌رسد	-3886
▁دانشکده	-3887
تص	-3888
ّه	-3889
▁1397	-3890
▁ري	-3891
ایات	-3892
▁شیراز	-3893
▁موضوعات	-3894
▁بازیگران	-3895
▁روانشناسی	-3896
▁بفر	-3897
▁ضعف	-3898
▁مقامات	-3899
▁علائم	-3900
تاح	-3901
▁آشپ	-3902
▁ششم	-3903
▁ایمان	-3904
▁ایمنی	-3905
▁ریشه	-3906
▁اروپایی	-3907
▁غم	-3908
▁جایزه	-3909
▁زندانی	-3910
50	-3911
▁دشمنان	-3912
▁صهیونی	-3913
▁مسلح	-3914
▁حفاظت	-3915
▁اپلیکی	-3916
▁قهرمانان	-3917
▁نشر	-3918
كم	-3919
▁مرجع	-3920
▁خواننده	-3921
▁اخلاقی	-3922
▁حسابداری	-3923
▁اندام	-3924
گزار	-3925
▁بزنید	-3926
▁رقم	-3927
▁فعلی	-3928
▁چنانچه	-3929
▁تفسیر	-3930
▁میکنند	-3931
▁بهشت	-3932
▁بپرد	-3933
▁افتاده	-3934
بخت	-3935
▁فکری	-3936
▁پایت	-3937
▁مازندران	-3938
▁سازمانی	-3939
▁امیدوارم	-3940
▁مقاوم	-3941
▁گوناگون	-3942
▁خال	-3943
▁خودت	-3944
وای	-3945
▁عوارض	-3946
▁خواهم	-3947
▁دانشگاهی	-3948
▁خواص	-3949
▁فولاد	-3950
12	-3951
▁مراقبت	-3952
يني	-3953
▁نگار	-3954
ادف	-3955
▁مض	-3956
▁تاز	-3957
▁بیماران	-3958
▁شگفت	-3959
▁گیلان	-3960
برای	-3961
▁افتتاح	-3962
▁خوشحال	-3963
فس	-3964
▁مردمی	-3965
▁مستقل	-3966
▁بازیکنان	-3967
▁‎	-3968
▁بید	-3969
▁دهان	-3970
▁دکتری	-3971
▁نمید	-3972
▁سلامتی	-3973
راث	-3974
▁تال	-3975
▁ویدی	-3976
▁رویکرد	-3977
▁سرما	-3978
لاغ	-3979
▁گوی	-3980
▁حاوی	-3981
▁مدير	-3982
▁سامان	-3983
ضه	-3984
▁توج	-3985
▁بهینه	-3986
▁منم	-3987
▁می‌کنم	-3988
▁نع	-3989
▁بتن	-3990
▁مزای	-3991
▁قطعات	-3992
▁توپ	-3993
▁علاق	-3994
▁هویت	-3995
گیل	-3996
▁گذر	-3997
▁سختی	-3998
▁سلاح	-3999
:00	-4000
▁معص	-4001
▁سخنگ	-4002
▁راستای	-4003
▁آست	-4004
▁ارزان	-4005
▁تنگ	-4006
▁رنج	-4007
▁تمرکز	-4008
▁آخ	-4009
▁خدای	-4010
يست	-4011
▁تحمل	-4012
▁بخاطر	-4013
▁قسم	-4014
▁متدا	-4015
▁پیوست	-4016
▁جوش	-4017
▁دانشجویی	-4018
اني	-4019
‌اف	-4020
▁عک	-4021
▁تروریستی	-4022
▁گفتن	-4023
▁اپلیکیشن	-4024
▁ریاضی	-4025
چاق	-4026
▁خلاق	-4027
▁اصطلاح	-4028
.(	-4029
اده‌	-4030
▁رشت	-4031
▁روزها	-4032
▁1396	-4033
▁گویند	-4034
سنا	-4035
▁اولویت	-4036
▁تابستان	-4037
▁هماهنگی	-4038
▁۲۸	-4039
▁ديد	-4040
▁ترکی	-4041
▁دیوان	-4042
▁کاغذ	-4043
▁گری	-4044
ایران	-4045
▁ریال	-4046
ستری	-4047
پرست	-4048
صره	-4049
▁94	-4050
▁اثبات	-4051
رسانی	-4052
▁هسته‌ای	-4053
▁صفر	-4054
▁کشید	-4055
▁۲۶	-4056
▁خونه	-4057
▁پيدا	-4058
▁گیرند	-4059
ht	-4060
▁ابن	-4061
▁مبنی	-4062
يک	-4063
گم	-4064
▁باق	-4065
▁مالک	-4066
▁صلاح	-4067
▁وقوع	-4068
▁متداول	-4069
ارم	-4070
▁اضطر	-4071
منان	-4072
▁نان	-4073
▁متهم	-4074
▁وبسایت	-4075
يف	-4076
▁۲۷	-4077
▁بهش	-4078
▁هاست	-4079
پلم	-4080
▁ابراز	-4081
▁نمیشه	-4082
▁دمو	-4083
▁چيز	-4084
ذر	-4085
▁۹۵	-4086
▁وام	-4087
▁مناسبی	-4088
▁کردستان	-4089
‌تان	-4090
سین	-4091
▁مظ	-4092
▁کلام	-4093
▁تئاتر	-4094
▁حداکثر	-4095
▁اختلال	-4096
▁قض	-4097
▁قه	-4098
▁شرایطی	-4099
▁برم	-4100
▁داغ	-4101
▁۱۰۰	-4102
▁بختی	-4103
▁١	-4104
▁صبر	-4105
▁استی	-4106
ارو	-4107
il	-4108
عل	-4109
▁>	-4110
▁دون	-4111
▁سینمایی	-4112
▁پرده	-4113
▁جناب	-4114
▁ارتقا	-4115
▁لوله	-4116
▁ايجاد	-4117
▁27	-4118
اء	-4119
▁رستوران	-4120
رگانی	-4121
▁حافظه	-4122
▁اختصاصی	-4123
‌،	-4124
▁آمادگی	-4125
▁نداریم	-4126
تي	-4127
▁آمدن	-4128
▁تفکر	-4129
▁اهواز	-4130
▁d	-4131
▁رویداد	-4132
▁زای	-4133
▁قاچاق	-4134
ومه	-4135
▁اخذ	-4136
▁ماس	-4137
▁جزو	-4138
▁سوء	-4139
▁فیزی	-4140
▁گفت‌و	-4141
▁مخالفت	-4142
▁کشیده	-4143
▁درب	-4144
▁محروم	-4145
▁زهرا	-4146
▁علیر	-4147
▁خورشید	-4148
راحت	-4149
▁بگم	-4150
▁زنگ	-4151
▁شویم	-4152
▁نوشتن	-4153
▁کنفرانس	-4154
▁کشی	-4155
▁جديد	-4156
▁پارس	-4157
▁ایالات	-4158
▁26	-4159
خیر	-4160
▁سؤال	-4161
▁طلاق	-4162
▁مربوطه	-4163
▁محدودیت	-4164
▁صدر	-4165
▁قطعه	-4166
▁o	-4167
▁صفحات	-4168
▁۵۰	-4169
مانه	-4170
▁بره	-4171
▁مجت	-4172
▁جنبش	-4173
▁مربی	-4174
▁پژوهشی	-4175
▁بهداشتی	-4176
▁توضیحات	-4177
سک	-4178
غیر	-4179
▁بازرگانی	-4180
‌م	-4181
▁28	-4182
▁اپل	-4183
▁نظریه	-4184
پیک	-4185
▁زیبای	-4186
‌اش	-4187
▁کریم	-4188
ایق	-4189
▁حجاب	-4190
ندن	-4191
ردگی	-4192
▁رساند	-4193
▁تاسی	-4194
▁خات	-4195
▁احکام	-4196
▁اوقات	-4197
▁می‌رود	-4198
▁شفاف	-4199
▁میخ	-4200
▁مؤس	-4201
▁حریم	-4202
▁افتخار	-4203
▁مجازات	-4204
▁کیلومتر	-4205
مالی	-4206
▁بالایی	-4207
▁بخش‌های	-4208
زم	-4209
▁اکت	-4210
▁کاش	-4211
▁جایگزین	-4212
▁زح	-4213
▁چرخ	-4214
▁تخفیف	-4215
۱۷	-4216
می‌	-4217
▁دیروز	-4218
▁سیما	-4219
▁آلودگی	-4220
ایف	-4221
▁زرد	-4222
پل	-4223
ریت	-4224
▁بلوچ	-4225
▁سوره	-4226
▁نمایندگی	-4227
▁پنهان	-4228
چوب	-4229
▁جاي	-4230
▁فجر	-4231
▁يكي	-4232
▁ریس	-4233
‌شان	-4234
▁گال	-4235
هور	-4236
▁گي	-4237
طوری	-4238
▁شاع	-4239
▁ماست	-4240
▁سخنگوی	-4241
▁مالیات	-4242
▁U	-4243
▁شری	-4244
▁ميان	-4245
▁خورده	-4246
▁سالگی	-4247
▁انتظامی	-4248
▁4-	-4249
نشان	-4250
▁بکار	-4251
▁تخت	-4252
▁چگون	-4253
▁می‌آید	-4254
▁ظهر	-4255
▁نادر	-4256
▁خوانده	-4257
▁معاونت	-4258
▁پایتخت	-4259
▁خاور	-4260
▁یمن	-4261
▁مقطع	-4262
▁مشرو	-4263
▁گیاهان	-4264
▁بدهد	-4265
▁مصر	-4266
▁پیمان	-4267
▁عام	-4268
▁برگرد	-4269
▁اسلامي	-4270
▁قهرمانی	-4271
نویس	-4272
▁تعوی	-4273
فاعی	-4274
▁محاس	-4275
▁کیلو	-4276
▁مطابق	-4277
▁کشورمان	-4278
▁زمینی	-4279
▁بلی	-4280
ارهای	-4281
▁برنامه‌	-4282
▁تمایل	-4283
▁۲۹	-4284
▁جلوی	-4285
▁سم	-4286
‌سازی	-4287
▁اقامت	-4288
▁سراغ	-4289
▁معلم	-4290
▁دیپلم	-4291
▁جاذ	-4292
▁کاب	-4293
▁موشک	-4294
▁۲۰۱۸	-4295
شکی	-4296
حر	-4297
▁شبک	-4298
▁دارن	-4299
▁وحدت	-4300
▁::	-4301
▁فرمت	-4302
▁خواند	-4303
▁تقل	-4304
▁رفتم	-4305
آنی	-4306
▁ایرانیان	-4307
باد	-4308
▁رها	-4309
▁چندان	-4310
▁پیشینه	-4311
▁پاسخگویی	-4312
▁بهره‌	-4313
▁زودتر	-4314
▁عاش	-4315
▁مصوب	-4316
▁توصی	-4317
▁دربار	-4318
ولد	-4319
▁مباح	-4320
▁هزین	-4321
▁میت	-4322
▁اعضا	-4323
▁ایرنا	-4324
زده	-4325
▁اسل	-4326
▁هرک	-4327
ch	-4328
):	-4329
اشت	-4330
▁شلو	-4331
▁هرچه	-4332
▁بارها	-4333
▁نوجوانان	-4334
دي	-4335
▁دک	-4336
زیه	-4337
▁فیس	-4338
▁قطر	-4339
▁شیرین	-4340
▁پدیده	-4341
▁قهرمان	-4342
▁ياد	-4343
▁رمان	-4344
▁شهروندان	-4345
oo	-4346
▁چش	-4347
▁دخالت	-4348
▁مذکور	-4349
▁عمی	-4350
▁فرآیند	-4351
▁نیازهای	-4352
وري	-4353
▁ه‍	-4354
دانلود	-4355
us	-4356
▁سینمای	-4357
گرمی	-4358
▁بگوی	-4359
▁چنين	-4360
▁اينكه	-4361
مام	-4362
▁مأ	-4363
▁انع	-4364
▁برود	-4365
▁جبهه	-4366
▁محافظ	-4367
▁برقرار	-4368
▁شیمیایی	-4369
وقف	-4370
اورد	-4371
▁چوب	-4372
▁امضا	-4373
▁انف	-4374
▁یزد	-4375
▁خریداری	-4376
▁نبا	-4377
▁خودروهای	-4378
،‌	-4379
زاد	-4380
▁بازنش	-4381
▁نباشید	-4382
لیف	-4383
▁ناد	-4384
▁خشون	-4385
▁سالی	-4386
▁شیشه	-4387
▁بستر	-4388
▁توليد	-4389
ديد	-4390
▁سازد	-4391
▁فرایند	-4392
▁معمولاً	-4393
▁اینه	-4394
▁مدارک	-4395
▁دیجیتال	-4396
▁نات	-4397
▁ضعیف	-4398
▁مین	-4399
نظ	-4400
▁بت	-4401
▁ظهور	-4402
▁زوج	-4403
▁فدراسیون	-4404
▁راز	-4405
▁اتصال	-4406
▁اطلاعی	-4407
▁وف	-4408
▁قرآنی	-4409
▁بختیاری	-4410
11	-4411
▁لطف	-4412
▁رایانه	-4413
رفه	-4414
▁1.	-4415
نیم	-4416
واق	-4417
وعی	-4418
▁احتمالا	-4419
▁پیرامون	-4420
۵۰	-4421
▁29	-4422
▁تجاوز	-4423
▁اله	-4424
▁هستی	-4425
▁مخاطب	-4426
▁یار	-4427
▁کری	-4428
▁کنن	-4429
▁لبنان	-4430
▁بلوچستان	-4431
▁مهاجرت	-4432
▁همانطور	-4433
▁آه	-4434
▁چینی	-4435
▁تجربی	-4436
ونت	-4437
گيري	-4438
▁نهم	-4439
▁حیات	-4440
▁قلبی	-4441
▁گردن	-4442
▁توجهی	-4443
▁ناحیه	-4444
▁راهبرد	-4445
▁شرا	-4446
▁خشونت	-4447
فتن	-4448
▁برترین	-4449
ولان	-4450
▁مهمان	-4451
▁درم	-4452
▁موقت	-4453
يح	-4454
بند	-4455
▁قدس	-4456
▁محاسبه	-4457
▁جغ	-4458
▁گرفتند	-4459
4)	-4460
▁کلا	-4461
▁رسيد	-4462
ستیک	-4463
گذشت	-4464
▁بارش	-4465
▁باشی	-4466
▁ماهه	-4467
▁برنامه‌های	-4468
▁سنجش	-4469
▁گرایش	-4470
▁کارگاه	-4471
▁رسم	-4472
▁تمدن	-4473
▁سرنوشت	-4474
▁خم	-4475
▁مطب	-4476
▁f	-4477
الع	-4478
▁زائ	-4479
▁ارتباطی	-4480
▁پت	-4481
▁تدا	-4482
ونمایی	-4483
▁متوقف	-4484
▁سیستان	-4485
▁ضرب	-4486
▁سرباز	-4487
۱۸	-4488
▁۱۳۹۲	-4489
▁کارآفر	-4490
▁کفش	-4491
▁نقاشی	-4492
▁پذیرفته	-4493
امد	-4494
▁عادت	-4495
▁بانوان	-4496
id	-4497
▁(2)	-4498
▁اعد	-4499
▁گرفتم	-4500
▁نمیتوان	-4501
▁موج	-4502
▁الگو	-4503
دو	-4504
▁لایه	-4505
▁والدین	-4506
▁۴۰	-4507
▁رونمایی	-4508
▁رج	-4509
▁رحم	-4510
نوعی	-4511
▁ارشاد	-4512
▁می‌کنید	-4513
▁خانوادگی	-4514
‌شده	-4515
▁بلاگ	-4516
▁أ	-4517
▁آیفون	-4518
▁بردار	-4519
بازی	-4520
▁عمران	-4521
▁فقیه	-4522
▁بابت	-4523
▁خلیج	-4524
▁موزه	-4525
▁میراث	-4526
▁مراجع	-4527
▁بتوانند	-4528
مج	-4529
▁جوی	-4530
▁شکر	-4531
عنوان	-4532
▁کردی	-4533
▁توه	-4534
▁سال‌های	-4535
دیه	-4536
▁حرک	-4537
▁زنانه	-4538
▁عظ	-4539
▁پرداخته	-4540
كس	-4541
▁استخوان	-4542
احمد	-4543
▁آلات	-4544
▁برطرف	-4545
▁سعید	-4546
▁بوشهر	-4547
▁انقلابی	-4548
زدی	-4549
▁زندگي	-4550
▁له	-4551
▁شام	-4552
▁بران	-4553
چم	-4554
▁زودی	-4555
▁معرض	-4556
▁خا	-4557
▁بازي	-4558
▁تورم	-4559
دست	-4560
▁وار	-4561
▁مي‌توان	-4562
▁عط	-4563
▁دانه	-4564
▁میگه	-4565
▁هرچند	-4566
▁مشك	-4567
▁چای	-4568
▁هفتم	-4569
▁افزاری	-4570
▁درگیری	-4571
▁نده	-4572
▁بسیج	-4573
▁وظایف	-4574
خود	-4575
▁نگ	-4576
▁یخ	-4577
▁کابل	-4578
▁مدیرعامل	-4579
▁ذه	-4580
▁کارگر	-4581
▁تسهیلات	-4582
▁]	-4583
▁پنجره	-4584
▁ایام	-4585
▁مخدر	-4586
▁اتهام	-4587
▁همدان	-4588
▁معادل	-4589
▁بنویسید	-4590
▁مطلوب	-4591
▁تلویزیونی	-4592
▁فا	-4593
▁امت	-4594
▁خواستار	-4595
‌گیری	-4596
▁فیلتر	-4597
▁گیاهی	-4598
▁زایمان	-4599
سو	-4600
▁همکاران	-4601
▁افزايش	-4602
▁افزوده	-4603
▁سالانه	-4604
▁b	-4605
▁درگیر	-4606
▁اعدام	-4607
▁غی	-4608
نیاز	-4609
▁شهدا	-4610
▁جزیره	-4611
▁فقه	-4612
▁دموکر	-4613
▁روبرو	-4614
▁موهای	-4615
!!!!	-4616
ه‌ایم	-4617
▁مرات	-4618
▁کارها	-4619
▁خاطرنشان	-4620
بخش	-4621
▁انگشت	-4622
▁عروسی	-4623
غد	-4624
▁کنونی	-4625
▁قربانی	-4626
▁ژاپن	-4627
شای	-4628
ساخت	-4629
▁اسید	-4630
▁سفارت	-4631
▁ظریف	-4632
اتون	-4633
▁قبیل	-4634
▁نوری	-4635
▁بدهید	-4636
▁کانادا	-4637
يع	-4638
▁فای	-4639
▁مدرک	-4640
▁نیازی	-4641
▁بگیرند	-4642
انع	-4643
▁2015	-4644
‌جمهور	-4645
▁الملل	-4646
فاوتی	-4647
▁خن	-4648
▁ابلاغ	-4649
▁تنهایی	-4650
▁مدیرکل	-4651
▁آشکار	-4652
▁نمى	-4653
ه‌بندی	-4654
▁سامسون	-4655
لند	-4656
▁نفتی	-4657
جات	-4658
▁نرس	-4659
▁کتابخانه	-4660
▁سنی	-4661
▁بيان	-4662
▁دیدنی	-4663
ow	-4664
▁اوراق	-4665
▁مهندس	-4666
۱۵	-4667
کشی	-4668
▁جر	-4669
گیرند	-4670
▁قزوین	-4671
▁لپ	-4672
اتور	-4673
▁معامل	-4674
جاع	-4675
رسي	-4676
▁چر	-4677
▁اوج	-4678
▁بزرگتر	-4679
▁60	-4680
▁محض	-4681
▁چراغ	-4682
▁تولیدی	-4683
▁جلسات	-4684
▁روستایی	-4685
▁راجع	-4686
▁پایدار	-4687
برز	-4688
کیه	-4689
▁بلیط	-4690
▁جبران	-4691
▁جنبه	-4692
▁سکوت	-4693
▁نوین	-4694
▁ندارید	-4695
ورو	-4696
▁بلام	-4697
كز	-4698
▁حب	-4699
▁متحد	-4700
▁کمال	-4701
فاقی	-4702
▁عسل	-4703
▁خطوط	-4704
▁حیوانات	-4705
▁شرکت‌های	-4706
ضاع	-4707
▁سیب	-4708
▁آنتی	-4709
▁چگونگی	-4710
▁عبارتند	-4711
درضا	-4712
▁بف	-4713
▁رأی	-4714
▁90	-4715
▁ویدئو	-4716
▁سامسونگ	-4717
ww	-4718
▁کور	-4719
▁استر	-4720
▁بندر	-4721
ایتی	-4722
▁فضایی	-4723
▁سبد	-4724
▁ثانیه	-4725
▁مصنوعی	-4726
گرو	-4727
▁بام	-4728
اپی	-4729
▁بشن	-4730
▁نماد	-4731
▁انگار	-4732
▁قي	-4733
شیو	-4734
▁بنام	-4735
▁2.	-4736
▁پلا	-4737
▁تعامل	-4738
▁متقاضی	-4739
▁تماشا	-4740
▁شماست	-4741
جار	-4742
▁سئو	-4743
▁کلان	-4744
▁حرارت	-4745
▁حملات	-4746
▁ورزشگاه	-4747
يير	-4748
▁اعتی	-4749
▁نيرو	-4750
▁ترانه	-4751
▁بهانه	-4752
۲۲	-4753
▁غذاهای	-4754
ec	-4755
گره	-4756
▁موافق	-4757
▁بيم	-4758
امع	-4759
▁زنا	-4760
▁میشم	-4761
▁داشتیم	-4762
تیک	-4763
▁وج	-4764
▁لزوم	-4765
▁نیستم	-4766
▁مباحث	-4767
▁انگیزه	-4768
▁پاکستان	-4769
ord	-4770
ه‌ام	-4771
▁تدوین	-4772
▁منطقی	-4773
▁رفاه	-4774
غر	-4775
گى	-4776
▁نفع	-4777
▁ویدیو	-4778
▁1395-0	-4779
▁خاطرات	-4780
▁محدوده	-4781
▁فعالیت‌های	-4782
امله	-4783
▁تروریست	-4784
▁مکت	-4785
▁محیطی	-4786
حالی	-4787
۲۵	-4788
▁چیه	-4789
▁زنجان	-4790
▁اعتیاد	-4791
ستند	-4792
▁کاخ	-4793
▁ریخت	-4794
▁نمي‌	-4795
زنی	-4796
▁ریز	-4797
▁اى	-4798
▁فری	-4799
▁ایسنا	-4800
▁نزدیکی	-4801
▁بلامانع	-4802
اطع	-4803
▁دکمه	-4804
▁فارغ	-4805
▁مؤثر	-4806
▁تخریب	-4807
▁هنرمندان	-4808
▁درستی	-4809
اداری	-4810
▁سبزی	-4811
مق	-4812
دوم	-4813
▁وای	-4814
ازده	-4815
▁خاموش	-4816
ارا	-4817
۱۳۹	-4818
▁تاپ	-4819
▁گلستان	-4820
▁تکنیک	-4821
▁بعنوان	-4822
▁پرچم	-4823
كنند	-4824
▁ملاق	-4825
▁مواف	-4826
▁تغيير	-4827
▁مرحوم	-4828
▁اتفاقی	-4829
▁نوبت	-4830
گردانی	-4831
▁قطعا	-4832
▁دقیقا	-4833
▁فرق	-4834
▁کاف	-4835
▁تبصره	-4836
▁سوئ	-4837
▁ابتدایی	-4838
▁تعویض	-4839
un	-4840
كتر	-4841
▁شرک	-4842
▁دوستی	-4843
17	-4844
▁شادی	-4845
▁مردی	-4846
▁گالری	-4847
▁ترافیک	-4848
▁طنز	-4849
▁قطعی	-4850
▁میخوام	-4851
ent	-4852
▁تناسب	-4853
▁ساختن	-4854
اهد	-4855
▁مجل	-4856
▁عمیق	-4857
▁آزار	-4858
وچ	-4859
ظاه	-4860
فصل	-4861
▁ادب	-4862
▁حدیث	-4863
▁خودمان	-4864
▁صهیونیستی	-4865
15	-4866
▁محبت	-4867
▁هدیه	-4868
▁موافقت	-4869
▁اختل	-4870
▁اوضاع	-4871
▁عی	-4872
▁برف	-4873
▁سلط	-4874
▁مبتنی	-4875
▁دارویی	-4876
دیا	-4877
▁پلاس	-4878
▁افسردگی	-4879
ab	-4880
▁وَ	-4881
۱۶	-4882
▁گز	-4883
▁ملک	-4884
▁سرگرمی	-4885
/2	-4886
▁الح	-4887
▁شوم	-4888
▁مجه	-4889
ه‌اید	-4890
▁خامنه	-4891
ig	-4892
▁هاى	-4893
▁بویر	-4894
▁اگرچه	-4895
▁غلط	-4896
▁شکایت	-4897
▁واحدهای	-4898
همه	-4899
▁عزیزان	-4900
▁تك	-4901
▁بریت	-4902
▁حمید	-4903
▁زمين	-4904
▁اتحاد	-4905
▁سرپرست	-4906
▁همچنين	-4907
▁شارژ	-4908
▁ابتلا	-4909
▁می‌کردند	-4910
▁دمای	-4911
▁تعبیر	-4912
▁می‌گویند	-4913
▁هیأت	-4914
▁توهین	-4915
▁مدافع	-4916
▁بیانیه	-4917
▁پیشین	-4918
▁یادداشت	-4919
▁فيل	-4920
▁حافظ	-4921
▁نبرد	-4922
▁گریه	-4923
هزار	-4924
▁استعداد	-4925
جز	-4926
▁فرش	-4927
▁قند	-4928
▁انگل	-4929
▁دارایی	-4930
▁خبرنامه	-4931
فرم	-4932
▁سگ	-4933
▁دامنه	-4934
بول	-4935
داث	-4936
▁سرانجام	-4937
▁ببخش	-4938
؟؟؟؟	-4939
▁جنایت	-4940
▁شبانه	-4941
▁وص	-4942
▁استع	-4943
▁کریمی	-4944
▁احساسات	-4945
▁الاسلام	-4946
▁داروهای	-4947
▁قدرتمند	-4948
‌ی	-4949
ینت	-4950
▁غنی	-4951
▁اردو	-4952
▁راضی	-4953
لیک	-4954
▁فش	-4955
▁واش	-4956
▁البرز	-4957
▁فال	-4958
▁روستا	-4959
ودر	-4960
میانه	-4961
▁مخلو	-4962
▁خطرناک	-4963
▁آله	-4964
▁همسرش	-4965
▁K	-4966
ذکر	-4967
ريق	-4968
▁دما	-4969
‌بینی	-4970
▁تعطیل	-4971
▁نوش	-4972
‌افزار	-4973
▁فرمودند	-4974
▁مهم‌ترین	-4975
▁ژن	-4976
▁خطاب	-4977
▁عناصر	-4978
▁اردبیل	-4979
▁متناسب	-4980
▁فراوانی	-4981
▁زا	-4982
▁اتوب	-4983
▁مدعی	-4984
▁معمولی	-4985
ut	-4986
وبه	-4987
▁سقف	-4988
۰۷	-4989
▁قهوه	-4990
▁آرشیو	-4991
▁دستگیر	-4992
▁دائ	-4993
پذ	-4994
▁منع	-4995
▁ناراحت	-4996
▁فاز	-4997
▁احتی	-4998
▁اربع	-4999
▁سایه	-5000
▁اثرات	-5001
▁ملاقات	-5002
▁دانشمندان	-5003
اسي	-5004
ew	-5005
فیل	-5006
جانی	-5007
▁جزء	-5008
▁هور	-5009
▁شدیم	-5010
▁کلاه	-5011
▁كود	-5012
ورک	-5013
▁کرم	-5014
▁چارچوب	-5015
▁اظهارات	-5016
۲۴	-5017
‌نام	-5018
▁سیا	-5019
▁عفون	-5020
▁بالاخره	-5021
اعت	-5022
▁شکم	-5023
▁خراب	-5024
▁ندید	-5025
وانه	-5026
▁بدم	-5027
▁خشم	-5028
اداران	-5029
▁احداث	-5030
ذار	-5031
▁ریسک	-5032
▁اجاره	-5033
-2	-5034
▁تنش	-5035
▁بابا	-5036
▁تمیز	-5037
▁توجیه	-5038
▁ویکی‌پ	-5039
18	-5040
▁قرص	-5041
▁ببرید	-5042
▁تحولات	-5043
▁کاملاً	-5044
▁اضطراب	-5045
▁فاض	-5046
▁لایحه	-5047
▁آرا	-5048
▁گنج	-5049
▁بخور	-5050
▁گفت‌وگو	-5051
راری	-5052
▁ادعا	-5053
▁ناگه	-5054
ضل	-5055
▁مون	-5056
يين	-5057
▁یاس	-5058
▁محرم	-5059
▁پولی	-5060
▁شهرسازی	-5061
▁دب	-5062
▁مأم	-5063
▁شست	-5064
▁دليل	-5065
▁خاورمیانه	-5066
ol	-5067
▁بيش	-5068
▁معدنی	-5069
6)	-5070
ماع	-5071
▁تخصص	-5072
▁علیرضا	-5073
▁اشکال	-5074
▁به‌عنوان	-5075
▁سيستم	-5076
▁زمستان	-5077
▁دس	-5078
▁آرزو	-5079
▁خانواد	-5080
▁خودکار	-5081
▁….	-5082
▁رنگی	-5083
▁فلسطین	-5084
▁پایی	-5085
▁آیات	-5086
▁اربعین	-5087
▁واسطه	-5088
اذ	-5089
▁آنرا	-5090
▁حلقه	-5091
▁دراز	-5092
ویرایش	-5093
▁برجسته	-5094
▁چهل	-5095
▁آفریق	-5096
▁يع	-5097
▁واژ	-5098
▁آیت‌الله	-5099
em	-5100
▁پیامک	-5101
▁اجتماعي	-5102
▁تبلیغاتی	-5103
▁منحصر	-5104
▁مسئولین	-5105
▁میکنیم	-5106
۱۴	-5107
▁می‌د	-5108
▁اراده	-5109
▁ابراهیم	-5110
▁نهادهای	-5111
▁پیشنهادی	-5112
زند	-5113
▁دروازه	-5114
مول	-5115
▁هزاران	-5116
5)	-5117
▁برا	-5118
▁جنگل	-5119
▁برنده	-5120
▁ردی	-5121
▁قبر	-5122
▁نکند	-5123
▁عکاسی	-5124
۰۵	-5125
حسین	-5126
▁ترجی	-5127
وئ	-5128
۰۱	-5129
▁وسط	-5130
▁اتمی	-5131
▁اموال	-5132
▁شهرها	-5133
▁عال	-5134
▁نمیکن	-5135
1)	-5136
▁آرای	-5137
▁خواهر	-5138
▁خودتون	-5139
شکل	-5140
▁مذهب	-5141
▁سردار	-5142
▁هیجان	-5143
▁انتهای	-5144
▁اسب	-5145
▁سیل	-5146
▁پری	-5147
▁دانند	-5148
▁سیگار	-5149
۰۴	-5150
▁فقر	-5151
▁مى‌	-5152
▁برام	-5153
▁نشریه	-5154
▁فعالان	-5155
60	-5156
▁توقف	-5157
▁اتوبوس	-5158
▁باستان	-5159
▁خودداری	-5160
بینی	-5161
یدند	-5162
▁بمب	-5163
▁غذای	-5164
▁گوشه	-5165
ap	-5166
▁طال	-5167
▁عفونت	-5168
عج	-5169
وام	-5170
همان	-5171
▁کشیدن	-5172
▁ماجرای	-5173
مم	-5174
َل	-5175
▁137	-5176
▁رئال	-5177
▁کنگره	-5178
▁سرمایه‌گذاری	-5179
▁رایج	-5180
▁هستن	-5181
▁هشتم	-5182
▁پارل	-5183
▁قضاوت	-5184
▁مستم	-5185
گیلویه	-5186
▁خروجی	-5187
▁روستای	-5188
▁بماند	-5189
▁ایتالیا	-5190
▁مشا	-5191
▁تحلیلی	-5192
▁آژانس	-5193
▁اعزام	-5194
▁احتمالی	-5195
40	-5196
ul	-5197
▁كه‌	-5198
▁سد	-5199
▁ویروس	-5200
▁قش	-5201
▁بوجود	-5202
ايد	-5203
پوش	-5204
روزی	-5205
▁الا	-5206
▁بیاید	-5207
▁مطبوع	-5208
ــــــــ	-5209
19	-5210
ریحی	-5211
▁مدیره	-5212
▁هماهنگ	-5213
ویم	-5214
▁دغد	-5215
▁شیعی	-5216
▁شرايط	-5217
▁ماجرا	-5218
▁رانندگی	-5219
پور	-5220
▁جاد	-5221
▁صلی	-5222
▁وحشت	-5223
▁کنون	-5224
صله	-5225
▁روحی	-5226
▁متصل	-5227
▁جاذبه	-5228
اقی	-5229
▁عاط	-5230
▁تجزیه	-5231
▁شهردار	-5232
▁افزارهای	-5233
▁کوش	-5234
▁ارتفاع	-5235
▁پیچیده	-5236
▁مهد	-5237
▁پال	-5238
▁امكان	-5239
▁آستانه	-5240
▁سراسری	-5241
▁نمک	-5242
▁وان	-5243
▁بدهی	-5244
▁الگوی	-5245
▁میلاد	-5246
▁شبکه‌های	-5247
▁نوا	-5248
▁تالار	-5249
▁سانتی	-5250
ه‌اش	-5251
▁اولی	-5252
▁پیکر	-5253
▁مخلوط	-5254
۰۹	-5255
▁غیره	-5256
▁اینگونه	-5257
زشکی	-5258
▁درسی	-5259
▁فیزیکی	-5260
▁مخاطبان	-5261
▁ملاح	-5262
▁بگیریم	-5263
طن	-5264
▁کوچه	-5265
▁بویراحمد	-5266
‌نامه	-5267
▁آرمان	-5268
39	-5269
▁مفاهیم	-5270
▁می‌بین	-5271
▁محمدرضا	-5272
رضا	-5273
▁چسب	-5274
▁کیش	-5275
▁مخاب	-5276
▁لرستان	-5277
لان	-5278
▁كس	-5279
▁شیک	-5280
▁خیال	-5281
▁سازه	-5282
▁گذاشتن	-5283
op	-5284
یید	-5285
ایلی	-5286
▁عقد	-5287
▁ممل	-5288
▁است‌	-5289
▁دکور	-5290
▁ادعای	-5291
▁تحریک	-5292
▁میخواه	-5293
علیه	-5294
▁علل	-5295
▁کودکی	-5296
خند	-5297
باشند	-5298
▁تشوی	-5299
▁بدهند	-5300
▁خاطره	-5301
فیق	-5302
▁آشپز	-5303
▁جانبی	-5304
ve	-5305
▁اجتماع	-5306
▁مایل	-5307
▁ناام	-5308
▁ژان	-5309
▁فرانس	-5310
▁متعدد	-5311
▁پایانی	-5312
گرفت	-5313
▁متولد	-5314
▁معامله	-5315
▁مبنای	-5316
▁دانش‌آ	-5317
▁ذیل	-5318
▁تکلیف	-5319
▁موسوی	-5320
▁معاملات	-5321
▁هواپیمای	-5322
۲۶	-5323
…]	-5324
▁منف	-5325
▁ناش	-5326
▁یاری	-5327
▁80	-5328
▁موردنیاز	-5329
جن	-5330
طو	-5331
ثير	-5332
▁i	-5333
دری	-5334
▁۹۴	-5335
‌نژاد	-5336
▁مدنی	-5337
▁بستگی	-5338
ess	-5339
▁دهی	-5340
▁کول	-5341
▁تظاه	-5342
▁ترجیح	-5343
▁سرمربی	-5344
ِن	-5345
قیب	-5346
▁انفجار	-5347
افل	-5348
▁حك	-5349
▁آمو	-5350
▁آيا	-5351
▁وب‌	-5352
▁تخلف	-5353
▁بیدار	-5354
▁زیارت	-5355
غی	-5356
۲۳	-5357
▁داند	-5358
▁پيامبر	-5359
فکر	-5360
▁درخ	-5361
▁قبال	-5362
▁هرمز	-5363
▁ايشان	-5364
▁همت	-5365
▁تزریق	-5366
▁ویکی‌پدیا	-5367
▁قوا	-5368
▁اومد	-5369
▁باتری	-5370
▁کالای	-5371
▁پم	-5372
▁[…]	-5373
▁جوانی	-5374
▁ترکیبی	-5375
۰۳	-5376
▁صرفا	-5377
▁تصادف	-5378
▁میتواند	-5379
▁بنیان	-5380
▁كردند	-5381
شکر	-5382
▁خند	-5383
▁سفیر	-5384
▁خبرهای	-5385
▁فعاليت	-5386
▁نوار	-5387
▁.....	-5388
▁ون	-5389
▁حامی	-5390
▁سوار	-5391
▁موضوعی	-5392
▁نیک	-5393
▁جانب	-5394
▁سطوح	-5395
▁تومانی	-5396
▁پیش‌بینی	-5397
▁v	-5398
وشی	-5399
ولت	-5400
▁شریف	-5401
▁عبدالله	-5402
ه‌است	-5403
▁خوشم	-5404
▁www	-5405
▁لحظ	-5406
▁چاق	-5407
▁مجهز	-5408
▁ترم	-5409
▁تلخ	-5410
▁ضرر	-5411
▁نداد	-5412
▁خسارت	-5413
▁سومین	-5414
▁نشسته	-5415
▁رئیس‌جمهور	-5416
."	-5417
دیت	-5418
گرا	-5419
▁اوست	-5420
▁جواد	-5421
▁مراتب	-5422
▁عملیاتی	-5423
▁آمیز	-5424
▁هواداران	-5425
▁کارگردان	-5426
▁اصلي	-5427
▁دانم	-5428
▁کهگیلویه	-5429
▁سه‌	-5430
گرایی	-5431
▁اسپانیا	-5432
▁کارگردانی	-5433
▁خوبه	-5434
▁فيلم	-5435
▁میگم	-5436
▁نظرم	-5437
▁بروید	-5438
▁این‌که	-5439
خدا	-5440
▁قوم	-5441
▁باری	-5442
▁ایستگاه	-5443
احتی	-5444
جوری	-5445
▁اوا	-5446
فاصله	-5447
▁بگویم	-5448
▁تنظیمات	-5449
▁ممكن	-5450
▁محققان	-5451
وسته	-5452
▁متأ	-5453
▁برنج	-5454
▁فاضل	-5455
▁تاسیس	-5456
▁داراي	-5457
ُم	-5458
▁کرج	-5459
▁سپرده	-5460
کب	-5461
رنگ	-5462
▁زيرا	-5463
▁پاری	-5464
▁متغیر	-5465
▁سازنده	-5466
▁بدنی	-5467
▁پروژ	-5468
ئه	-5469
کات	-5470
80	-5471
۰۸	-5472
▁خرج	-5473
حق	-5474
هايي	-5475
▁شبه	-5476
▁انگلستان	-5477
▁شانس	-5478
▁خودروی	-5479
▁گردیده	-5480
▁اصلاحات	-5481
▁برقراری	-5482
ابری	-5483
▁حقیقی	-5484
▁پزشکان	-5485
▁سکس	-5486
▁اطلاعیه	-5487
1.	-5488
۲۹	-5489
and	-5490
▁موضع	-5491
▁خرم	-5492
▁مری	-5493
▁جنین	-5494
▁سپاس	-5495
مث	-5496
▁تابع	-5497
▁عظیم	-5498
▁واجب	-5499
▁اکث	-5500
▁بشناس	-5501
▁دشوار	-5502
▁میکرو	-5503
▁پايان	-5504
شور	-5505
▁زخم	-5506
▁تجمع	-5507
▁ماسه	-5508
▁تقدیر	-5509
▁دفاعی	-5510
▁حساسیت	-5511
طبی	-5512
▁دای	-5513
▁علي	-5514
▁اسات	-5515
▁تأیید	-5516
لط	-5517
‌شناسی	-5518
▁خوشبخت	-5519
۰۶	-5520
صار	-5521
▁بغ	-5522
▁برمی	-5523
ter	-5524
▁نقض	-5525
▁نعمت	-5526
▁یافتن	-5527
▁بهشتی	-5528
▁میدهد	-5529
▁می‌گذ	-5530
▁عمو	-5531
▁میکنید	-5532
ردی	-5533
▁وکیل	-5534
▁رهبران	-5535
▁استث	-5536
7)	-5537
▁کمپانی	-5538
مزد	-5539
▁بق	-5540
▁بدید	-5541
▁ستون	-5542
▁واری	-5543
▁تدریس	-5544
▁مسعود	-5545
▁مصل	-5546
▁ایلام	-5547
▁عمومي	-5548
▁پرورد	-5549
بن	-5550
چر	-5551
▁نتي	-5552
▁غلام	-5553
▁مواق	-5554
▁سمنان	-5555
▁طلایی	-5556
▁محمدی	-5557
▁معادن	-5558
▁کالاهای	-5559
ازید	-5560
▁طريق	-5561
▁اتمام	-5562
▁تجدید	-5563
▁مديريت	-5564
__	-5565
ه‌ي	-5566
▁ضبط	-5567
▁راستا	-5568
سور	-5569
▁جون	-5570
اهایی	-5571
▁معده	-5572
▁نمايد	-5573
▁زدم	-5574
مين	-5575
▁مسأ	-5576
▁قسمتی	-5577
▁نگهبان	-5578
ایب	-5579
ارتی	-5580
اترین	-5581
16	-5582
ترين	-5583
▁1394	-5584
▁تروی	-5585
▁لندن	-5586
۲۱	-5587
▁۰۹	-5588
نگتن	-5589
▁حین	-5590
▁ناس	-5591
▁متخصصان	-5592
۲۸	-5593
▁of	-5594
گروه	-5595
▁انب	-5596
▁زور	-5597
▁متم	-5598
▁مهلت	-5599
▁پلاک	-5600
▁بهتری	-5601
▁متنوع	-5602
▁درگذشت	-5603
▁موسسات	-5604
ادات	-5605
▁تصم	-5606
▁نظم	-5607
بتی	-5608
▁کلم	-5609
▁اکبر	-5610
▁گویی	-5611
▁تضمین	-5612
▁70	-5613
▁بسي	-5614
خواهی	-5615
اقد	-5616
▁مرتب	-5617
▁مثلاً	-5618
▁تلفنی	-5619
وپ	-5620
ابند	-5621
▁اواخر	-5622
▁اتفاقات	-5623
ساله	-5624
▁تربیتی	-5625
▁جلد	-5626
▁گون	-5627
▁بومی	-5628
▁هنرمند	-5629
سیس	-5630
لین	-5631
▁تنوع	-5632
▁کلیپ	-5633
▁تشویق	-5634
غام	-5635
▁سپت	-5636
▁قدیم	-5637
▁ثبات	-5638
▁امداد	-5639
▁میکنن	-5640
چنین	-5641
خواستم	-5642
▁مقاومتی	-5643
//	-5644
ur	-5645
▁بپرس	-5646
▁تحقي	-5647
▁انبار	-5648
▁مزایای	-5649
▁3.	-5650
▁محکم	-5651
▁تبادل	-5652
▁استخراج	-5653
بیشتر	-5654
▁زحمت	-5655
2)	-5656
▁رابط	-5657
▁والی	-5658
▁بررسي	-5659
▁خواهان	-5660
بای	-5661
▁کنین	-5662
im	-5663
اهو	-5664
ینال	-5665
▁موظ	-5666
▁درآم	-5667
▁آپارت	-5668
▁بیاور	-5669
▁انتشارات	-5670
▁گواه	-5671
▁35	-5672
درصد	-5673
۲۷	-5674
▁کنسرت	-5675
▁نمیدونم	-5676
▁عج	-5677
▁سور	-5678
▁نگرش	-5679
▁ماندن	-5680
▁مشاغل	-5681
▁صبحانه	-5682
▁آمري	-5683
▁حرام	-5684
▁نماي	-5685
▁حرفه‌ای	-5686
▁بعض	-5687
انش	-5688
▁آقایان	-5689
خبر	-5690
▁شعبه	-5691
▁نانو	-5692
▁واشنگتن	-5693
▁میر	-5694
▁جغرافی	-5695
▁خواستم	-5696
▁32	-5697
▁وآ	-5698
▁بخواهد	-5699
▁ادر	-5700
▁دين	-5701
▁بیاد	-5702
▁امشب	-5703
▁برسان	-5704
▁نامزد	-5705
▁برخلاف	-5706
؟؟؟	-5707
زاری	-5708
▁شایسته	-5709
▁دستیابی	-5710
▁سپتامبر	-5711
نشین	-5712
▁افرا	-5713
▁موان	-5714
▁بنزین	-5715
وقت	-5716
▁صلاحیت	-5717
▁مرورگر	-5718
▁بریتانیا	-5719
شیر	-5720
لاس	-5721
▁اوب	-5722
▁مکر	-5723
▁سوزی	-5724
▁شورا	-5725
▁اوایل	-5726
▁همراهی	-5727
▁وردپرس	-5728
▁بص	-5729
▁همد	-5730
▁یک‌	-5731
▁اختر	-5732
▁میگو	-5733
▁توصیف	-5734
▁ديگري	-5735
▁دستگیری	-5736
od	-5737
وو	-5738
….	-5739
ویز	-5740
▁کاندید	-5741
▁بازسازی	-5742
▁کارمندان	-5743
▁برنامه‌ریزی	-5744
▁کرو	-5745
▁گرچه	-5746
▁((	-5747
فروش	-5748
▁معلمان	-5749
▁اك	-5750
▁بکش	-5751
▁تبلت	-5752
▁فاقد	-5753
▁اندی	-5754
▁مخفی	-5755
▁پاره	-5756
فیه	-5757
▁یکم	-5758
▁ارزشمند	-5759
▁سحر	-5760
نما	-5761
▁جعفر	-5762
▁عادل	-5763
▁روایات	-5764
▁پروانه	-5765
اضع	-5766
بله	-5767
▁یو	-5768
▁تسنیم	-5769
َن	-5770
▁مسک	-5771
▁مریم	-5772
▁نمره	-5773
▁رفسنج	-5774
▁ازش	-5775
▁پیروز	-5776
▁نرم‌افزار	-5777
▁اعم	-5778
▁رگ	-5779
▁صعود	-5780
رق	-5781
▁مقدمه	-5782
▁ارتقاء	-5783
▁بلافاصله	-5784
الا	-5785
▁عمق	-5786
▁مقرر	-5787
▁فرمایید	-5788
‌ت	-5789
فران	-5790
▁یورو	-5791
▁می‌گردد	-5792
▁رونق	-5793
▁فعلا	-5794
▁نیش	-5795
▁دريا	-5796
▁فلزی	-5797
▁ارایه	-5798
▁جاس	-5799
▁شیرینی	-5800
▁اچ	-5801
▁قائ	-5802
▁نیوی	-5803
▁استراحت	-5804
▁باند	-5805
▁کمترین	-5806
سیل	-5807
▁آری	-5808
گرفته	-5809
▁خورا	-5810
▁اعتراف	-5811
▁فو	-5812
▁فلز	-5813
▁وصل	-5814
▁مجتمع	-5815
▁گذارد	-5816
منی	-5817
▁ارا	-5818
▁تکیه	-5819
▁متری	-5820
▁آنقدر	-5821
▁الکتری	-5822
▁یازدهم	-5823
▁دادگ	-5824
▁مقصد	-5825
▁زمينه	-5826
▁فک	-5827
▁جاب	-5828
▁پادشاه	-5829
▁مشکلاتی	-5830
يمي	-5831
▁صندلی	-5832
▁میانگین	-5833
▁علامت‌گذاری	-5834
اااا	-5835
▁کات	-5836
▁برخي	-5837
▁فتنه	-5838
▁داوطل	-5839
▁کربلا	-5840
▁کارکرد	-5841
انده	-5842
▁بایست	-5843
بک	-5844
وتین	-5845
▁قاشق	-5846
▁n	-5847
گير	-5848
▁روشهای	-5849
ّی	-5850
شدن	-5851
صلی	-5852
▁زین	-5853
▁شاخه	-5854
▁قاضی	-5855
▁اختلالات	-5856
14	-5857
ژي	-5858
ختن	-5859
▁امپ	-5860
▁صرفه	-5861
▁جوامع	-5862
كی	-5863
روند	-5864
ابایت	-5865
▁نمی‌کند	-5866
▁باطل	-5867
▁۲۰۱۷	-5868
▁سالگرد	-5869
▁واگذار	-5870
38	-5871
▁ذهنی	-5872
يشه	-5873
▁بالاترین	-5874
شما	-5875
▁دامن	-5876
▁زخمی	-5877
▁شهرک	-5878
‌کننده	-5879
▁دیابت	-5880
▁سالهای	-5881
▁برداشته	-5882
▁بزرگوار	-5883
▁مالیاتی	-5884
اخ	-5885
▁قضیه	-5886
▁۶۰	-5887
▁پنل	-5888
▁جلوه	-5889
▁معاصر	-5890
▁مقداری	-5891
▁معرفت	-5892
‌که	-5893
▁نتيجه	-5894
▁توانیم	-5895
▁نمیتوانید	-5896
ation	-5897
▁مادرید	-5898
▁حسب	-5899
▁مطلق	-5900
▁هایش	-5901
▁محافظت	-5902
▁تحصیلات	-5903
ازن	-5904
پای	-5905
▁خيلي	-5906
▁مجید	-5907
▁توانسته	-5908
▁زناشویی	-5909
▁500	-5910
▁بلكه	-5911
▁ترویج	-5912
▁بزرگان	-5913
▁دانش‌آموز	-5914
▁h	-5915
وردی	-5916
▁پهل	-5917
▁الل	-5918
▁فرس	-5919
▁بیند	-5920
▁ابی	-5921
▁اساتید	-5922
▁امارات	-5923
▁حاکمیت	-5924
▁نیویورک	-5925
▁آي	-5926
ختری	-5927
▁بیا	-5928
▁عزت	-5929
▁واض	-5930
▁گمرک	-5931
▁معارف	-5932
▁راهنما	-5933
▁آلوده	-5934
▁پذیری	-5935
سام	-5936
متر	-5937
▁5-	-5938
▁اسامی	-5939
▁انیمی	-5940
▁گزارشی	-5941
خوانی	-5942
▁پورت	-5943
▁گردشگران	-5944
انا	-5945
▁خي	-5946
▁چرب	-5947
▁راستی	-5948
▁راننده	-5949
خاذ	-5950
▁ربط	-5951
▁مکمل	-5952
▁خیانت	-5953
▁شنیده	-5954
▁خش	-5955
قابل	-5956
ولین	-5957
▁شاعر	-5958
▁شهدای	-5959
▁شیطان	-5960
▁انتخاباتی	-5961
وایی	-5962
▁بنگ	-5963
▁پمپ	-5964
▁ستار	-5965
▁منظم	-5966
▁چشمان	-5967
▁بخصوص	-5968
▁مصالح	-5969
▁میگن	-5970
▁مسأله	-5971
▁مجری	-5972
▁میگیر	-5973
▁خودشون	-5974
▁نویسندگان	-5975
▁کارآفرینی	-5976
.)	-5977
وگرافی	-5978
▁آفرین	-5979
اتل	-5980
▁جال	-5981
▁فراز	-5982
▁فوری	-5983
▁آلمانی	-5984
▁معتقدند	-5985
مانند	-5986
▁همگی	-5987
روح	-5988
طار	-5989
عار	-5990
▁عطر	-5991
▁ساعات	-5992
▁نمودن	-5993
▁کلاسی	-5994
▁بازارهای	-5995
گیز	-5996
▁تحر	-5997
▁پوی	-5998
▁نوروزی	-5999
سن	-6000
ابتی	-6001
▁پارچه	-6002
▁حتي	-6003
▁فتح	-6004
▁تداوم	-6005
▁ببخشید	-6006
▁الن	-6007
▁بدنه	-6008
▁بزند	-6009
▁معصوم	-6010
▁استارت	-6011
▁اعتباری	-6012
▁امین	-6013
▁محاسب	-6014
▁درمورد	-6015
▁میزبان	-6016
یرد	-6017
▁الته	-6018
▁زیان	-6019
ايل	-6020
▁فرما	-6021
▁یادآور	-6022
▁تام	-6023
داري	-6024
▁سانت	-6025
▁اتخاذ	-6026
▁داوطلبان	-6027
ماً	-6028
دانش	-6029
زاب	-6030
▁تبی	-6031
▁نسخ	-6032
▁هستش	-6033
▁مبارز	-6034
▁متعددی	-6035
▁استقرار	-6036
:0	-6037
▁حمام	-6038
▁المپیک	-6039
کیک	-6040
ازیم	-6041
▁پدرش	-6042
▁بسپار	-6043
وود	-6044
▁نحو	-6045
▁بایستی	-6046
▁صدم	-6047
▁اشغال	-6048
▁مجددا	-6049
▁مرتبه	-6050
▁پردازش	-6051
▁گیگ	-6052
▁سرقت	-6053
▁تقاضا	-6054
▁ظاهری	-6055
▁درحالی	-6056
▁ماهواره	-6057
ساعت	-6058
▁تار	-6059
تصاویر	-6060
▁فریاد	-6061
▁نابود	-6062
▁پاریس	-6063
▁دریاچه	-6064
▁دکوراسیون	-6065
وات	-6066
▁راه‌	-6067
▁قرائ	-6068
▁قیام	-6069
▁دریای	-6070
▁شده‌است	-6071
▁فرانسوی	-6072
زایی	-6073
▁گزین	-6074
▁مجلسی	-6075
▁پتروش	-6076
آموز	-6077
▁اکتبر	-6078
▁آشپزخانه	-6079
▁شكل	-6080
▁توری	-6081
▁عصبی	-6082
▁به‌طور	-6083
▁پاسداران	-6084
گونی	-6085
▁رسانه‌های	-6086
يون	-6087
▁کاپ	-6088
▁سونی	-6089
▁دنيا	-6090
▁كاهش	-6091
▁ایثار	-6092
امن	-6093
▁مسو	-6094
▁تاج	-6095
▁ساعته	-6096
▁می‌داد	-6097
ia	-6098
خب	-6099
▁حرکات	-6100
▁پروردگار	-6101
▁رب	-6102
▁۳۱	-6103
▁۹۰	-6104
▁صحت	-6105
▁تعلق	-6106
▁دارا	-6107
▁طرفی	-6108
▁مدال	-6109
▁يعني	-6110
▁اوباما	-6111
▁1395-05	-6112
▁انیمیشن	-6113
▁تروریسم	-6114
ذاب	-6115
▁4.	-6116
▁لق	-6117
▁بری	-6118
▁دود	-6119
▁عاق	-6120
▁قائل	-6121
▁موانع	-6122
▁شیعیان	-6123
▁مردانه	-6124
▁مطالبات	-6125
قام	-6126
▁حبس	-6127
▁هادی	-6128
▁کنيد	-6129
▁الب	-6130
▁پاپ	-6131
▁خونی	-6132
▁میرز	-6133
▁دلاری	-6134
▁گلکسی	-6135
▁مقت	-6136
العمل	-6137
▁احوال	-6138
▁عضلات	-6139
▁شایع	-6140
▁تصفیه	-6141
▁استناد	-6142
▁نوامبر	-6143
▁دز	-6144
اختی	-6145
▁مربع	-6146
▁كننده	-6147
▁گفتگوی	-6148
ابي	-6149
یتون	-6150
▁ملا	-6151
▁تابل	-6152
▁موشکی	-6153
▁گفتار	-6154
▁هید	-6155
▁1392	-6156
▁لیزر	-6157
▁تفریحی	-6158
▁نوشته‌های	-6159
سانس	-6160
▁تلقی	-6161
▁مارس	-6162
منستان	-6163
▁دغدغه	-6164
▁تقاضای	-6165
▁ساختمانی	-6166
▁تعجب	-6167
▁اعصاب	-6168
▁مامان	-6169
▁پرشین	-6170
▁خلاقیت	-6171
▁میشوند	-6172
1]	-6173
▁جنج	-6174
▁ستم	-6175
▁کامی	-6176
▁آسیاب	-6177
▁ببینم	-6178
▁فیزیک	-6179
▁بازرسی	-6180
▁سال‌ها	-6181
▁برایتان	-6182
▁بوس	-6183
شناخت	-6184
▁نشون	-6185
▁عاشورا	-6186
▁۹۳	-6187
البته	-6188
▁فرنگی	-6189
▁وک	-6190
▁افتد	-6191
▁گمان	-6192
▁گيرد	-6193
▁رودخانه	-6194
▁مسافران	-6195
▁دانشنامه	-6196
ّا	-6197
▁آتی	-6198
▁چاه	-6199
▁۱۹۹	-6200
▁1393	-6201
▁برون	-6202
▁حامل	-6203
▁سایز	-6204
▁تشریح	-6205
▁سعادت	-6206
‌ان	-6207
▁ایل	-6208
▁برش	-6209
▁براش	-6210
▁رحمت	-6211
▁ساکن	-6212
فایل	-6213
▁دقي	-6214
▁خواهی	-6215
‌ام	-6216
توجه	-6217
▁ائت	-6218
▁مسکونی	-6219
▁بتوانیم	-6220
په	-6221
▁بدتر	-6222
▁پذير	-6223
▁متعال	-6224
▁یاران	-6225
▁باردار	-6226
▁نمودند	-6227
اوی	-6228
▁کتب	-6229
▁درود	-6230
▁پاییز	-6231
▁دستمزد	-6232
‌س	-6233
يره	-6234
▁شنید	-6235
▁میشد	-6236
▁کادر	-6237
▁آرزوی	-6238
▁تمدید	-6239
▁مشورت	-6240
▁پاداش	-6241
▁روزگار	-6242
▁اکرم	-6243
▁دادیم	-6244
▁اینقدر	-6245
▁نصف	-6246
▁محيط	-6247
▁فراتر	-6248
▁تحریم‌های	-6249
▁طعم	-6250
▁اینا	-6251
▁صالح	-6252
▁ظاهرا	-6253
▁بیکاری	-6254
▁گرافیک	-6255
▁می‌گیرند	-6256
▁الس	-6257
▁برزی	-6258
▁عرفان	-6259
▁متفاوتی	-6260
▁بشم	-6261
▁دانسته	-6262
▁فاضلاب	-6263
▁بازی‌های	-6264
پول	-6265
▁(3)	-6266
▁دونالد	-6267
هاست	-6268
▁واضح	-6269
▁نود	-6270
▁کیک	-6271
▁تسلیم	-6272
▁تعادل	-6273
▁روش‌های	-6274
▁امیدواریم	-6275
حاب	-6276
منت	-6277
کین	-6278
▁ترش	-6279
▁آیند	-6280
▁قطار	-6281
▁آمدند	-6282
▁احزاب	-6283
os	-6284
▁پاش	-6285
▁بشود	-6286
▁كنيم	-6287
▁راه‌اند	-6288
8)	-6289
▁كمك	-6290
▁قيمت	-6291
▁مشمول	-6292
▁ارومیه	-6293
:2	-6294
يله	-6295
▁تشی	-6296
▁ذوب	-6297
▁مود	-6298
▁ایراد	-6299
▁رفتند	-6300
اهر	-6301
یما	-6302
▁پودر	-6303
▁داوری	-6304
▁روزنام	-6305
▁تمرینات	-6306
▁كنم	-6307
▁ماش	-6308
▁جنگی	-6309
▁وقتي	-6310
▁علمیه	-6311
▁خوراکی	-6312
هاش	-6313
▁غد	-6314
▁اسد	-6315
▁نوک	-6316
▁کمتری	-6317
▁دستورالعمل	-6318
oc	-6319
▁فره	-6320
▁وات	-6321
▁پرهی	-6322
▁ژنتی	-6323
▁۲۰۱۶	-6324
▁بهتره	-6325
▁نمايند	-6326
▁پتروشیمی	-6327
راين	-6328
▁خطا	-6329
▁پید	-6330
▁آورند	-6331
▁تازگی	-6332
▁تقدیم	-6333
▁45	-6334
▁93	-6335
▁يه	-6336
▁بریز	-6337
▁مرتضی	-6338
▁می‌خواهد	-6339
----	-6340
▁سرکوب	-6341
▁یکبار	-6342
▁قضاییه	-6343
▁مایکرو	-6344
▁سلس	-6345
▁ظلم	-6346
▁عهد	-6347
▁تصاو	-6348
▁معاف	-6349
▁بگذارد	-6350
▁آپارتمان	-6351
املی	-6352
▁نقص	-6353
▁ساير	-6354
▁عزیزم	-6355
▁ماهیت	-6356
▁دادگستری	-6357
90	-6358
▁ادم	-6359
▁قار	-6360
▁موظف	-6361
▁تفاهم	-6362
▁رسانه‌ها	-6363
eb	-6364
▁31	-6365
یابد	-6366
▁ریزش	-6367
▁خودکشی	-6368
▁داوطلب	-6369
▁تاریخچه	-6370
▁هرمزگان	-6371
ضت	-6372
هری	-6373
▁رام	-6374
▁محله	-6375
▁مناق	-6376
▁مورخ	-6377
▁رفتارهای	-6378
یلی	-6379
التی	-6380
▁رزرو	-6381
▁بگیرم	-6382
▁علامه	-6383
▁دسامبر	-6384
▁رفتاری	-6385
95	-6386
:4	-6387
▁مگه	-6388
▁دروس	-6389
▁ميزان	-6390
▁گروه‌های	-6391
▁جسم	-6392
▁درخشان	-6393
▁استرالیا	-6394
▁الکتریکی	-6395
▁انز	-6396
▁بهت	-6397
▁قوت	-6398
▁ایکس	-6399
▁مصلحت	-6400
▁کارایی	-6401
▁بتوانید	-6402
▁سیاست‌های	-6403
ینو	-6404
▁استف	-6405
▁داور	-6406
▁می‌رس	-6407
▁مخالفان	-6408
▁احمدی‌نژاد	-6409
▁تردید	-6410
▁مدیریتی	-6411
▁گزارش‌های	-6412
ظمی	-6413
قین	-6414
▁غف	-6415
▁هز	-6416
فیلم	-6417
▁برن	-6418
زیستی	-6419
▁شتاب	-6420
▁تشدید	-6421
▁دلخواه	-6422
▁گرفتار	-6423
افز	-6424
▁روم	-6425
▁بازم	-6426
▁تموم	-6427
▁پسند	-6428
▁تاخیر	-6429
▁سادگی	-6430
خخ	-6431
یدگی	-6432
▁نقدی	-6433
▁آپدیت	-6434
▁ارتقای	-6435
▁فردوسی	-6436
شاء	-6437
خوری	-6438
▁مي‌كند	-6439
‌ر	-6440
آمد	-6441
▁میش	-6442
▁نامش	-6443
▁بگوید	-6444
▁مالکیت	-6445
لیس	-6446
▁وه	-6447
نه‌ای	-6448
▁مطلع	-6449
ver	-6450
▁ترف	-6451
▁خريد	-6452
▁طرفداران	-6453
▁کدوم	-6454
▁والیبال	-6455
▁دبیرستان	-6456
فش	-6457
برند	-6458
▁دفع	-6459
▁پیم	-6460
▁توده	-6461
▁شنیدن	-6462
▁مؤسسه	-6463
▁استح	-6464
▁جداگانه	-6465
9)	-6466
um	-6467
پي	-6468
خور	-6469
▁2014	-6470
▁شهرت	-6471
▁لبخند	-6472
▁St	-6473
▁300	-6474
▁۱۳۹۱	-6475
▁برایش	-6476
▁کامنت	-6477
▁فرستاد	-6478
▁نیروگاه	-6479
▁مرزی	-6480
▁فراخوان	-6481
:5	-6482
▁اصرار	-6483
▁ائ	-6484
▁۱۳۷	-6485
▁امری	-6486
▁مهربان	-6487
▁چیزهایی	-6488
لاً	-6489
▁ادی	-6490
تواند	-6491
▁آداب	-6492
▁كامل	-6493
▁منوی	-6494
▁روحیه	-6495
▁فاکتور	-6496
▁کوتاهی	-6497
▁دادستان	-6498
▁کارهایی	-6499
▁الگ	-6500
▁معین	-6501
▁قبولی	-6502
▁چراکه	-6503
▁:)	-6504
▁تعاون	-6505
▁پوتین	-6506
▁ابزارهای	-6507
▁رفسنجانی	-6508
▁فرموده	-6509
▁پروتئین	-6510
مره	-6511
سافت	-6512
طوبت	-6513
▁تشك	-6514
▁کیس	-6515
▁ابوال	-6516
▁تئوری	-6517
▁48	-6518
▁خوی	-6519
▁دگر	-6520
▁رکورد	-6521
▁عقیده	-6522
▁مصوبه	-6523
▁مواقع	-6524
تاژ	-6525
قیم	-6526
دهند	-6527
▁مرده	-6528
▁ناصر	-6529
▁معیار	-6530
يدن	-6531
▁بوت	-6532
▁سرش	-6533
▁عذر	-6534
▁مركز	-6535
▁مسیح	-6536
رافیکی	-6537
▁خواهش	-6538
▁سلمان	-6539
▁ائتلاف	-6540
▁انحراف	-6541
▁مادران	-6542
جت	-6543
مش	-6544
▁املاک	-6545
▁اندکی	-6546
▁تعيين	-6547
▁دختری	-6548
▁دستگاه‌های	-6549
ارشی	-6550
▁استد	-6551
▁ودر	-6552
▁قلعه	-6553
▁پرهیز	-6554
▁نداشتم	-6555
▁نمی‌تواند	-6556
قر	-6557
▁کنسول	-6558
▁ببرد	-6559
▁صاحبان	-6560
▁جستجوگر	-6561
ایز	-6562
▁تیپ	-6563
تحصیل	-6564
▁دائمی	-6565
▁مواضع	-6566
▁نادرست	-6567
▁طبي	-6568
▁فاج	-6569
پیوند	-6570
▁ميلي	-6571
▁عراقی	-6572
▁تحقیقاتی	-6573
▁زندانیان	-6574
پت	-6575
حسن	-6576
طفی	-6577
▁ارس	-6578
▁مکتب	-6579
▁پیش‌	-6580
▁ویژگی‌های	-6581
زدهم	-6582
▁هیچ‌	-6583
▁می‌برد	-6584
وئن	-6585
▁ویدئ	-6586
▁گانه	-6587
▁رطوبت	-6588
▁راه‌اندازی	-6589
▁یوس	-6590
▁دائم	-6591
▁بنابر	-6592
▁قیمتی	-6593
▁زیرساخت	-6594
▁استراتژیک	-6595
▁کرک	-6596
▁گرا	-6597
▁فرستاده	-6598
▁محر	-6599
▁مسلم	-6600
▁مطمئ	-6601
َر	-6602
اصد	-6603
چرا	-6604
▁گندم	-6605
▁میانه	-6606
▁نوسان	-6607
▁نوآوری	-6608
کنی	-6609
یریه	-6610
▁معج	-6611
▁قشنگ	-6612
▁امامت	-6613
▁هواپیمایی	-6614
وابط	-6615
▁خطی	-6616
▁شرم	-6617
فرو	-6618
مار	-6619
خیلی	-6620
▁زشت	-6621
▁اهالی	-6622
▁دانید	-6623
▁استانی	-6624
▁طرفدار	-6625
۳۱	-6626
▁قصه	-6627
▁متأس	-6628
▁اسباب	-6629
▁تبیین	-6630
ack	-6631
طاف	-6632
وتری	-6633
▁تکه	-6634
▁منکر	-6635
▁تظاهرات	-6636
▁92	-6637
▁تیتر	-6638
▁کاشت	-6639
▁یهودی	-6640
▁ملاحظه	-6641
li	-6642
▁ِ	-6643
طلب	-6644
▁خويش	-6645
▁شکار	-6646
▁اخراج	-6647
واقع	-6648
▁ابه	-6649
▁بشری	-6650
▁پشتی	-6651
▁ارجاع	-6652
▁اصحاب	-6653
▁عاطفی	-6654
▁نگارش	-6655
▁تعهدات	-6656
▁پیوسته	-6657
▁بخواهید	-6658
▁پاسخگوی	-6659
▁تحریم‌ها	-6660
انگ	-6661
▁مسایل	-6662
▁دوازدهم	-6663
ریش	-6664
‌مان	-6665
▁اعط	-6666
▁2013	-6667
▁تذکر	-6668
▁فریب	-6669
پیمایی	-6670
▁ممکنه	-6671
▁ممنونم	-6672
۱۳۸	-6673
▁جري	-6674
▁ناه	-6675
▁زبال	-6676
▁عنصر	-6677
▁غافل	-6678
▁مصدوم	-6679
▁باکتری	-6680
▁بازیابی	-6681
▁چهارمحال	-6682
up	-6683
یدان	-6684
▁مسکو	-6685
▁اقوام	-6686
▁درونی	-6687
▁بگویید	-6688
▁فراگیر	-6689
بیت	-6690
فای	-6691
چنان	-6692
▁ترك	-6693
▁خستگی	-6694
▁نداده	-6695
▁برآورد	-6696
جور	-6697
▁بخار	-6698
▁ترين	-6699
▁عذاب	-6700
▁پدرم	-6701
▁مستقر	-6702
▁اقتصادي	-6703
في	-6704
برگ	-6705
وزه	-6706
▁HT	-6707
▁كوچ	-6708
▁دسته‌بندی	-6709
▁كسي	-6710
▁موی	-6711
▁ائمه	-6712
▁تصرف	-6713
▁اکران	-6714
▁جدایی	-6715
▁مهران	-6716
▁گردان	-6717
▁بنابراين	-6718
چال	-6719
▁پسران	-6720
▁شناختی	-6721
▁دوش	-6722
▁یکسان	-6723
▁تصمیمات	-6724
▁نخواهند	-6725
رج	-6726
...]	-6727
▁گره	-6728
▁خیاب	-6729
▁نامن	-6730
▁برتری	-6731
▁مداوم	-6732
▁استدلال	-6733
▁زیباترین	-6734
بي	-6735
اتي	-6736
چین	-6737
▁مغزی	-6738
▁نکاتی	-6739
▁بدانند	-6740
مدت	-6741
▁مجاه	-6742
▁منظر	-6743
▁نفره	-6744
▁پارلمان	-6745
▁تگ	-6746
افتد	-6747
الان	-6748
بایی	-6749
سنجی	-6750
▁کمر	-6751
▁فروشی	-6752
▁پارسی	-6753
▁دستاور	-6754
اهت	-6755
▁اقی	-6756
▁امروزی	-6757
خشی	-6758
غری	-6759
قول	-6760
▁دلت	-6761
▁فدا	-6762
.....	-6763
▁نوشید	-6764
▁یارانه	-6765
▁دستش	-6766
▁ترفند	-6767
▁تسلیت	-6768
▁ضوابط	-6769
▁طالبان	-6770
▁سئ	-6771
▁حقي	-6772
راتور	-6773
▁جعبه	-6774
▁نیشاب	-6775
▁پرسید	-6776
▁هنرهای	-6777
▁تعطیلات	-6778
▁خز	-6779
▁لع	-6780
▁صاف	-6781
▁تناس	-6782
▁زياد	-6783
▁شرکتهای	-6784
فار	-6785
ومتری	-6786
▁ناخن	-6787
▁دموکراسی	-6788
▁خوشبختانه	-6789
▁قفل	-6790
▁اهنگ	-6791
▁بالغ	-6792
▁نمی‌دان	-6793
▁۸۰	-6794
تناب	-6795
▁تيم	-6796
▁حروف	-6797
▁روده	-6798
▁زندگ	-6799
▁مایع	-6800
▁ناراحتی	-6801
▁نیت	-6802
▁لاری	-6803
ML	-6804
باف	-6805
ريف	-6806
▁حید	-6807
▁جریم	-6808
▁In	-6809
▁تکان	-6810
▁شرعی	-6811
▁علما	-6812
▁مزیت	-6813
▁برایم	-6814
▁مستمر	-6815
▁فرماندار	-6816
96	-6817
رون	-6818
عهده	-6819
▁حما	-6820
▁پخت	-6821
باران	-6822
▁انها	-6823
▁بعدا	-6824
▁صدها	-6825
▁اضافی	-6826
▁هورمون	-6827
▁پش	-6828
▁زدند	-6829
▁الزام	-6830
▁عبادت	-6831
▁پرنده	-6832
▁خامنه‌ای	-6833
▁صحن	-6834
▁جسمی	-6835
▁بسياري	-6836
برت	-6837
▁سوپ	-6838
▁زيبا	-6839
▁مترو	-6840
▁اونجا	-6841
▁ریخته	-6842
▁مسافرت	-6843
▁آمی	-6844
▁تاس	-6845
▁ریش	-6846
▁سوي	-6847
▁میک	-6848
▁سواد	-6849
▁گردند	-6850
▁التهاب	-6851
▁می‌دانند	-6852
▁هزینه‌های	-6853
َه	-6854
▁راي	-6855
▁آدمی	-6856
▁یکپار	-6857
▁میتونه	-6858
▁نمایشگر	-6859
یرت	-6860
▁عس	-6861
▁هرگاه	-6862
▁وب‌سایت	-6863
الي	-6864
رتان	-6865
زامی	-6866
▁تفکیک	-6867
▁شهروند	-6868
▁می‌پرد	-6869
▁اتومبیل	-6870
؟»	-6871
یع	-6872
۵۷	-6873
▁متون	-6874
▁ويژه	-6875
▁گواهی	-6876
۴۰	-6877
ردن	-6878
انیت	-6879
▁ساحل	-6880
▁حكومت	-6881
▁سوالی	-6882
▁اجتناب	-6883
ذیب	-6884
▁ترور	-6885
▁نادیده	-6886
▁کیه	-6887
▁شوخی	-6888
‌رسانی	-6889
▁آماری	-6890
حات	-6891
▁دبی	-6892
▁تدبیر	-6893
▁جانبه	-6894
▁مراقب	-6895
▁نکنند	-6896
ran	-6897
▁ید	-6898
بختی	-6899
رسان	-6900
▁تراز	-6901
▁نهضت	-6902
▁بگوییم	-6903
▁مخابرات	-6904
لر	-6905
۳۹	-6906
▁قاتل	-6907
▁متنی	-6908
▁تماشای	-6909
▁ایستاده	-6910
ترس	-6911
▁رش	-6912
محمد	-6913
موزی	-6914
▁مادرش	-6915
▁میبین	-6916
▁اعتراضات	-6917
"،	-6918
ولا	-6919
ویچ	-6920
▁...)	-6921
▁سطحی	-6922
▁تفریح	-6923
▁عمرانی	-6924
▁متقاضیان	-6925
▁برنامه‌ها	-6926
▁۷۰	-6927
▁ولى	-6928
▁روسی	-6929
▁صنفی	-6930
▁كردم	-6931
▁هلال	-6932
▁اندیش	-6933
▁تعالی	-6934
▁نبودن	-6935
▁زنجیره	-6936
▁زبان‌های	-6937
خل	-6938
▁گویا	-6939
▁بازده	-6940
▁سپاهان	-6941
▁موجودات	-6942
كا	-6943
لوم	-6944
▁صی	-6945
ومتی	-6946
▁تاک	-6947
▁ربات	-6948
▁مادرم	-6949
37	-6950
OS	-6951
چون	-6952
▁آزمایشگاه	-6953
‌.	-6954
▁وم	-6955
▁چت	-6956
▁اومده	-6957
▁حتماً	-6958
▁متمرکز	-6959
راست	-6960
▁توط	-6961
▁ایفا	-6962
▁بیام	-6963
▁پنجاه	-6964
▁نداشتن	-6965
طیلی	-6966
وهای	-6967
پورت	-6968
▁غبار	-6969
▁واریز	-6970
▁ساماندهی	-6971
آب	-6972
▁g	-6973
سازان	-6974
▁جزوه	-6975
▁قائم	-6976
▁هیدرو	-6977
▁متأسفانه	-6978
▁شبكه	-6979
▁خبرها	-6980
▁برساند	-6981
▁مخصوصا	-6982
▁واقعاً	-6983
▁ثبت‌نام	-6984
▁ضخ	-6985
▁۳۵	-6986
▁ابو	-6987
▁اسک	-6988
▁اشی	-6989
▁بدر	-6990
▁راس	-6991
▁ارزشی	-6992
▁الهام	-6993
▁مبادل	-6994
▁نکردم	-6995
▁کشتار	-6996
▁مکانیک	-6997
▁خصوصیات	-6998
▁صورتیکه	-6999
▁نداشتند	-7000
۴۵	-7001
▁آيه	-7002
▁ملي	-7003
سلمین	-7004
▁حریف	-7005
▁سلیقه	-7006
▁دريافت	-7007
▁داده‌اند	-7008
32	-7009
ثال	-7010
▁خنک	-7011
▁سار	-7012
▁برقی	-7013
اتری	-7014
▁که‌	-7015
▁دوری	-7016
▁ردیف	-7017
▁دوبله	-7018
▁کوچکی	-7019
▁لي	-7020
ثیری	-7021
▁سلسله	-7022
▁شرکتی	-7023
▁پهن	-7024
▁بتون	-7025
▁شکلی	-7026
▁نمون	-7027
▁آنگاه	-7028
▁رسالت	-7029
زي	-7030
▁پهلوی	-7031
ra	-7032
▁بزار	-7033
▁سفره	-7034
▁هندی	-7035
▁سرشار	-7036
▁اسلاید	-7037
▁کلاسیک	-7038
ex	-7039
ترنت	-7040
…………	-7041
▁مایکروسافت	-7042
ارض	-7043
▁تحص	-7044
▁ناق	-7045
▁ناپ	-7046
▁پکی	-7047
▁وحشی	-7048
▁وسیع	-7049
▁کیفی	-7050
▁اصلاً	-7051
کانت	-7052
انیان	-7053
▁مهار	-7054
▁می‌‌	-7055
▁انعطاف	-7056
▁شهروندی	-7057
▁کامپیوتری	-7058
خرید	-7059
جویان	-7060
▁پيام	-7061
▁گرام	-7062
▁قرائت	-7063
▁مملکت	-7064
▁اقتدار	-7065
▁چهارمین	-7066
ئل	-7067
کوه	-7068
▁الْ	-7069
▁نیا	-7070
▁جراح	-7071
▁جریمه	-7072
▁ببینیم	-7073
زیی	-7074
▁The	-7075
▁غرق	-7076
▁مزاح	-7077
ce	-7078
▁(+	-7079
▁هل	-7080
▁توم	-7081
▁فكر	-7082
▁درخش	-7083
▁شکسته	-7084
▁مهاجر	-7085
▁کارمند	-7086
▁خالص	-7087
▁کجاست	-7088
▁راهبردی	-7089
▁می‌یابد	-7090
▁مختص	-7091
▁میشن	-7092
24	-7093
بیا	-7094
▁آک	-7095
▁جیم	-7096
▁بستن	-7097
▁علنی	-7098
▁درحال	-7099
▁فوریه	-7100
▁منتخب	-7101
▁سرمايه	-7102
مي	-7103
▁آند	-7104
▁زانو	-7105
▁کیست	-7106
▁نامیده	-7107
▁خورشیدی	-7108
▁حامد	-7109
▁اشعار	-7110
▁مامور	-7111
▁فیلم‌های	-7112
▁آت	-7113
▁موز	-7114
▁پیاز	-7115
▁دوازده	-7116
نمای	-7117
▁مسؤ	-7118
▁معرف	-7119
▁گذاران	-7120
سری	-7121
▁کبد	-7122
▁بدانیم	-7123
▁استانبول	-7124
َم	-7125
▁غری	-7126
▁میره	-7127
▁حکایت	-7128
▁نمودار	-7129
▁نوشیدنی	-7130
سمت	-7131
فرما	-7132
▁تسهیل	-7133
▁تصميم	-7134
▁ندهید	-7135
▁آوردند	-7136
▁به‌صورت	-7137
▁فرماندهی	-7138
ستن	-7139
لای	-7140
▁اندک	-7141
▁مقاد	-7142
▁آخوند	-7143
▁محاسبات	-7144
▁تیمی	-7145
السلام	-7146
▁بهادار	-7147
▁پروفایل	-7148
▁قید	-7149
▁ازای	-7150
▁جريان	-7151
▁مزبور	-7152
▁می‌گفت	-7153
▁فروشنده	-7154
نل	-7155
▁136	-7156
▁صوت	-7157
▁نخب	-7158
▁اندر	-7159
▁احسان	-7160
▁تکامل	-7161
▁پرتاب	-7162
▁وابستگی	-7163
▁نر	-7164
▁رغم	-7165
▁رویه	-7166
▁مشتر	-7167
▁مغازه	-7168
▁افزودن	-7169
▁کیلوگرم	-7170
ate	-7171
فتد	-7172
له‌	-7173
▁88	-7174
▁تبع	-7175
▁منتق	-7176
▁ادارات	-7177
▁بارگذاری	-7178
گردی	-7179
▁اسکن	-7180
▁فلان	-7181
▁ژوئن	-7182
ارستان	-7183
▁تعرفه	-7184
▁دراین	-7185
شایی	-7186
▁بوک	-7187
▁زاد	-7188
▁سلب	-7189
▁همه‌	-7190
▁كنترل	-7191
▁اقدامی	-7192
▁اکثریت	-7193
طوب	-7194
▁33	-7195
▁الت	-7196
▁امان	-7197
▁اجلاس	-7198
▁مصطفی	-7199
▁کارگری	-7200
▁عزاداری	-7201
بين	-7202
▁طیف	-7203
▁ناظر	-7204
▁نامز	-7205
▁انبوه	-7206
▁دفاتر	-7207
▁معجزه	-7208
▁همه‌ی	-7209
▁آرایشی	-7210
۴۸	-7211
▁جما	-7212
▁معتر	-7213
▁مقال	-7214
▁مقاصد	-7215
اسد	-7216
يتي	-7217
▁لاز	-7218
▁یادم	-7219
▁ارقام	-7220
▁احتیاج	-7221
َا	-7222
فتی	-7223
نیا	-7224
▁--	-7225
▁37	-7226
▁لات	-7227
دهنده	-7228
▁قضائ	-7229
▁مدام	-7230
▁دانش‌آموزان	-7231
:«	-7232
بو	-7233
▁36	-7234
نایی	-7235
▁ثان	-7236
▁شریک	-7237
▁نقره	-7238
سازد	-7239
یتان	-7240
▁عث	-7241
▁سون	-7242
▁جویی	-7243
▁اجراي	-7244
▁طراحي	-7245
▁فرصتی	-7246
استفاده	-7247
▁حکومتی	-7248
▁دوستانه	-7249
ارن	-7250
▁جزیی	-7251
▁دعوا	-7252
▁قاسم	-7253
▁پکیج	-7254
▁افزونه	-7255
▁واگذاری	-7256
▁توانمندی	-7257
ak	-7258
▁135	-7259
▁بیای	-7260
▁برگزیده	-7261
▁بهزیستی	-7262
اسمی	-7263
▁دري	-7264
▁ضمان	-7265
▁هايي	-7266
بق	-7267
حم	-7268
صب	-7269
رداد	-7270
▁پرا	-7271
الیست	-7272
▁حلال	-7273
▁غیبت	-7274
▁دانشنامهٔ	-7275
ييد	-7276
حافظ	-7277
▁توانم	-7278
▁سالها	-7279
▁دفترچه	-7280
▁میخواستم	-7281
▁دیت	-7282
▁وطن	-7283
▁باهم	-7284
▁اينجا	-7285
▁برزیل	-7286
▁شوروی	-7287
▁يافتن	-7288
▁تولیدات	-7289
▁سبزیجات	-7290
▁راهکارهای	-7291
ادم	-7292
باع	-7293
یاط	-7294
آباد	-7295
▁ذكر	-7296
▁اونم	-7297
▁بفهم	-7298
▁بهای	-7299
▁توبه	-7300
▁جوری	-7301
▁نازل	-7302
▁جملات	-7303
▁سبزوار	-7304
▁انکار	-7305
▁تعطیلی	-7306
▁پذیرفت	-7307
▁ارمنستان	-7308
▁راهپیمایی	-7309
▁ارک	-7310
▁حوا	-7311
▁میدم	-7312
▁نشین	-7313
▁نواز	-7314
اکس	-7315
پرو	-7316
▁باشيد	-7317
▁همسایه	-7318
▁کاروان	-7319
▁فلسطینی	-7320
▁کارد	-7321
▁همینطور	-7322
ِل	-7323
گا	-7324
یص	-7325
▁!!	-7326
▁بزنم	-7327
▁حرفی	-7328
▁طباط	-7329
▁كسان	-7330
▁افزون	-7331
▁ترمیم	-7332
▁میکنی	-7333
▁اینطور	-7334
▁بپیوند	-7335
▁تجربیات	-7336
پیش	-7337
▁!!!	-7338
▁نجف	-7339
▁تطبی	-7340
▁تیره	-7341
▁یابی	-7342
▁اسماع	-7343
▁طلبان	-7344
▁استادی	-7345
▁مرزهای	-7346
▁باستانی	-7347
▁بانک‌ها	-7348
▁میزبانی	-7349
سای	-7350
ادله	-7351
▁ایا	-7352
▁مجال	-7353
▁امضای	-7354
▁سياسي	-7355
▁فیلمی	-7356
▁نتوانست	-7357
▁اختلافات	-7358
‌دار	-7359
▁ناو	-7360
▁می‌ش	-7361
▁جانشین	-7362
▁می‌خوان	-7363
▁کرده‌اید	-7364
25	-7365
اتو	-7366
اين	-7367
زرگ	-7368
▁حوص	-7369
▁عینک	-7370
▁اخیرا	-7371
▁اکانت	-7372
▁تحمیل	-7373
▁تقویم	-7374
▁دلیلی	-7375
▁بفرمایید	-7376
۳۶	-7377
کول	-7378
▁تهی	-7379
▁کوب	-7380
▁سازند	-7381
▁سواری	-7382
▁شلوار	-7383
▁پوستی	-7384
▁پیشنهادات	-7385
اهل	-7386
ثری	-7387
▁اين‌	-7388
▁آشپزی	-7389
▁سیمان	-7390
▁نمايش	-7391
‌جمهوری	-7392
▁میتونم	-7393
۵۸	-7394
یاس	-7395
▁نصی	-7396
▁وین	-7397
▁فشرده	-7398
▁اختراع	-7399
▁بازتاب	-7400
▁تسلط	-7401
طری	-7402
▁تث	-7403
▁تشکل	-7404
▁کارش	-7405
▁نمائید	-7406
▁تقریباً	-7407
▁میتونید	-7408
▁سج	-7409
▁ذات	-7410
‌آوری	-7411
▁نفری	-7412
▁احساسی	-7413
تع	-7414
خانی	-7415
طرنج	-7416
نگری	-7417
▁سوگ	-7418
▁على	-7419
▁كام	-7420
▁کون	-7421
▁گیم	-7422
▁مندی	-7423
▁میرس	-7424
▁فرهنگي	-7425
▁جغرافیایی	-7426
97	-7427
▁وخ	-7428
▁جعف	-7429
▁پرف	-7430
▁نشدن	-7431
▁هارد	-7432
▁ابهام	-7433
▁مطبوعات	-7434
▁انتقادات	-7435
فان	-7436
▁طر	-7437
▁باقر	-7438
▁دربی	-7439
▁ادرار	-7440
▁همکار	-7441
▁کلیدوا	-7442
▁ابری	-7443
▁رایان	-7444
شهری	-7445
▁جایز	-7446
▁شکنجه	-7447
▁مسدود	-7448
▁اصلاح‌	-7449
▁پیروان	-7450
▁جهنم	-7451
▁حركت	-7452
▁كنار	-7453
▁ماسک	-7454
▁بازديد	-7455
▁لاریجانی	-7456
▁۰۸	-7457
انوس	-7458
▁اذیت	-7459
▁دامپ	-7460
▁سپری	-7461
▁قدرد	-7462
▁قرعه	-7463
▁گرما	-7464
▁حضوری	-7465
▁داماد	-7466
▁هزينه	-7467
▁دخترانه	-7468
▁پرسشنامه	-7469
۳۵	-7470
▁رئيس	-7471
▁ابراه	-7472
▁رونالد	-7473
موم	-7474
‌الع	-7475
▁سلو	-7476
▁پله	-7477
▁معتاد	-7478
▁چیکار	-7479
▁عناوین	-7480
▁الگوریت	-7481
ct	-7482
▁اونا	-7483
▁قطره	-7484
▁شطرنج	-7485
▁تکمیلی	-7486
▁نابودی	-7487
▁تعمیرات	-7488
▁امتیازات	-7489
سالان	-7490
▁تجرب	-7491
▁صفات	-7492
▁خاتمی	-7493
▁خوراک	-7494
▁نکردن	-7495
▁درختان	-7496
▁ديگران	-7497
▁توانمند	-7498
▁قطعنامه	-7499
▁ماموریت	-7500
آر	-7501
كل	-7502
min	-7503
▁خج	-7504
▁گرس	-7505
▁۵۰۰	-7506
▁داروی	-7507
▁رضایی	-7508
▁زباله	-7509
▁شاگردان	-7510
▁مبادلات	-7511
نى	-7512
۳۷	-7513
به‌	-7514
▁حت	-7515
▁مدی	-7516
مایشی	-7517
▁آقاي	-7518
▁شانه	-7519
اندازی	-7520
▁آمدید	-7521
▁آينده	-7522
▁بنگاه	-7523
▁تقلید	-7524
▁خاصیت	-7525
▁فرماید	-7526
غمبر	-7527
▁سوا	-7528
▁دكتر	-7529
▁زيادي	-7530
▁مالزی	-7531
▁خوشمزه	-7532
▁نگرفته	-7533
▁برادران	-7534
▁تصاویری	-7535
▁می‌داند	-7536
▁کارنامه	-7537
▁حكم	-7538
▁گير	-7539
▁ابرو	-7540
▁دیسک	-7541
▁هجری	-7542
▁سلطان	-7543
▁گفتمان	-7544
▁الکترون	-7545
▁55	-7546
▁نهی	-7547
▁کم‌	-7548
▁دستم	-7549
▁عقاید	-7550
▁مصرفی	-7551
صت	-7552
est	-7553
ورم	-7554
▁آخه	-7555
▁اموز	-7556
▁منتظ	-7557
▁امثال	-7558
▁فاجعه	-7559
▁خدماتی	-7560
3-	-7561
35	-7562
شاهی	-7563
▁اسف	-7564
▁فلش	-7565
‌زاده	-7566
▁تردد	-7567
ه‌گیری	-7568
▁اولين	-7569
▁بعدها	-7570
▁مظلوم	-7571
▁مقدماتی	-7572
▁اتوماتیک	-7573
حض	-7574
ّم	-7575
چشم	-7576
ستمی	-7577
▁جنا	-7578
▁جیب	-7579
▁مطهر	-7580
▁می‌ک	-7581
▁وآله	-7582
▁براتون	-7583
ديگر	-7584
▁ختم	-7585
▁بروند	-7586
▁همسرم	-7587
▁گلوله	-7588
▁حالیکه	-7589
▁لیسانس	-7590
▁درباره‌ی	-7591
ep	-7592
کسل	-7593
▁عبد	-7594
▁چوبی	-7595
گذاران	-7596
▁صادقی	-7597
▁آسیایی	-7598
▁منطقه‌ای	-7599
▁حکمت	-7600
▁بیماری‌های	-7601
==	-7602
▁word	-7603
▁بریم	-7604
▁ضریب	-7605
▁مشكل	-7606
▁گشود	-7607
▁اينکه	-7608
▁فواید	-7609
▁پوستر	-7610
].	-7611
يكي	-7612
▁مقص	-7613
▁خانوم	-7614
▁سازگار	-7615
▁كر	-7616
▁HTML	-7617
▁بجای	-7618
▁سازي	-7619
▁برعهده	-7620
▁روزمره	-7621
▁نرسیده	-7622
▁ویدئویی	-7623
ذب	-7624
▁هام	-7625
ه‌دار	-7626
▁اميد	-7627
▁بلوغ	-7628
▁بپوش	-7629
▁ایشون	-7630
▁تکذیب	-7631
▁اختيار	-7632
▁ماندگار	-7633
▁42	-7634
▁صم	-7635
▁کب	-7636
▁توح	-7637
▁نرو	-7638
▁وگر	-7639
▁حاکی	-7640
▁تائید	-7641
▁یادآوری	-7642
▁شعب	-7643
▁علمي	-7644
▁بودید	-7645
▁پردیس	-7646
▁بهترين	-7647
▁شیرازی	-7648
▁میکردم	-7649
▁تجار	-7650
▁بویژه	-7651
▁مرطوب	-7652
رال	-7653
▁بودی	-7654
▁زیستی	-7655
▁مجروح	-7656
▁بدترین	-7657
عان	-7658
▁بى	-7659
▁فح	-7660
▁نك	-7661
یعنی	-7662
▁تران	-7663
▁لوکس	-7664
▁مطهری	-7665
▁منصوب	-7666
▁وزارتخانه	-7667
کردن	-7668
▁دلس	-7669
▁شجا	-7670
▁آخرت	-7671
▁ذرات	-7672
▁روشی	-7673
▁گوجه	-7674
▁بداند	-7675
▁زیرنویس	-7676
ذی	-7677
log	-7678
حان	-7679
▁بير	-7680
▁كلي	-7681
▁يافت	-7682
▁رساندن	-7683
▁احی	-7684
مانده	-7685
▁آلوم	-7686
▁سورا	-7687
▁اسکار	-7688
▁همان‌	-7689
▁استوار	-7690
▁تراکتور	-7691
ml	-7692
حد	-7693
۴۴	-7694
شیار	-7695
▁باخت	-7696
▁بذار	-7697
▁نحوی	-7698
▁اورژانس	-7699
الو	-7700
یکی	-7701
▁اخطار	-7702
▁الگوریتم	-7703
all	-7704
our	-7705
جنگ	-7706
▁محال	-7707
▁نسبی	-7708
▁چادر	-7709
▁زماني	-7710
▁شناور	-7711
▁فرمول	-7712
▁قواعد	-7713
شع	-7714
‌د	-7715
عه‌	-7716
▁قطب	-7717
▁پند	-7718
پذیری	-7719
پزشکی	-7720
▁تشكيل	-7721
▁مجتبی	-7722
▁رسانده	-7723
ونید	-7724
▁مرو	-7725
▁حیاتی	-7726
▁استانداری	-7727
‌ک	-7728
سکو	-7729
باید	-7730
▁عمد	-7731
▁همب	-7732
▁سوابق	-7733
▁نخبگان	-7734
▁34	-7735
‌تری	-7736
▁اقای	-7737
▁جعفری	-7738
▁دایره	-7739
▁مرتکب	-7740
▁اشتباهات	-7741
▁استانداردهای	-7742
۳۲	-7743
کوس	-7744
ستگان	-7745
▁عظمت	-7746
▁غریب	-7747
▁مسلط	-7748
▁پوشاک	-7749
وفان	-7750
▁سوری	-7751
▁ویزا	-7752
▁لازمه	-7753
▁هميشه	-7754
▁علاقه‌	-7755
22	-7756
ft	-7757
▁درای	-7758
▁شاغل	-7759
▁لیتر	-7760
▁گيري	-7761
▁تأسیس	-7762
▁ضمانت	-7763
▁خانوار	-7764
.5	-7765
آم	-7766
▁کهن	-7767
يبهشت	-7768
▁تدریج	-7769
▁درگاه	-7770
▁تناسلی	-7771
▁خودمون	-7772
are	-7773
▁گور	-7774
قانون	-7775
▁الکت	-7776
▁فیبر	-7777
▁قالی	-7778
▁کیفری	-7779
▁گرایی	-7780
▁می‌آورد	-7781
▁رسانه‌ای	-7782
▁کتاب‌های	-7783
ah	-7784
▁خوام	-7785
▁غلبه	-7786
▁ببرند	-7787
▁شواهد	-7788
▁ویزای	-7789
▁ثروتمند	-7790
۵۶	-7791
خوش	-7792
▁مایه	-7793
ه‌ترین	-7794
▁سرگرم	-7795
▁برآورده	-7796
▁ارديبهشت	-7797
▁لغت	-7798
▁گازی	-7799
شناسان	-7800
▁باهاش	-7801
▁بدونم	-7802
▁شدگان	-7803
▁طرفین	-7804
▁زائران	-7805
▁بخواهیم	-7806
36	-7807
کف	-7808
الیز	-7809
▁چيزي	-7810
▁مدینه	-7811
▁مسیحی	-7812
▁HD	-7813
▁in	-7814
▁انق	-7815
▁كان	-7816
▁منش	-7817
▁پایداری	-7818
▁فعالیتهای	-7819
▁زر	-7820
▁غزه	-7821
▁رکود	-7822
▁شکوه	-7823
▁جماعت	-7824
▁گذاشتم	-7825
شتن	-7826
یمه	-7827
▁تلو	-7828
▁دلا	-7829
ه‌سازی	-7830
▁اهميت	-7831
▁کمپین	-7832
ine	-7833
واک	-7834
▁**	-7835
▁بدل	-7836
▁قارچ	-7837
▁چرخه	-7838
▁۲۰۱۵	-7839
▁ایالت	-7840
۶۰	-7841
اقت	-7842
▁زب	-7843
كنون	-7844
▁اوت	-7845
▁۱۳۹۰	-7846
گرایان	-7847
▁سياست	-7848
▁پيشنه	-7849
▁ژاپنی	-7850
▁ژانویه	-7851
▁پژوهشگران	-7852
▁دستاوردهای	-7853
بعد	-7854
راب	-7855
چیز	-7856
▁6-	-7857
▁400	-7858
▁دوز	-7859
▁آنتن	-7860
▁ایلنا	-7861
▁بغداد	-7862
▁لیوان	-7863
▁مطالبی	-7864
▁مزد	-7865
▁اشرف	-7866
▁دست‌	-7867
▁رقیب	-7868
▁شلیک	-7869
▁خونریزی	-7870
۳۳	-7871
ندر	-7872
▁44	-7873
امیک	-7874
قسمت	-7875
▁رقص	-7876
▁همیش	-7877
▁تاکسی	-7878
ثه	-7879
قدم	-7880
يابي	-7881
▁شير	-7882
▁نها	-7883
اندان	-7884
▁حمايت	-7885
▁ترکیبات	-7886
۵۵	-7887
باً	-7888
ُمْ	-7889
گام	-7890
طانی	-7891
ولای	-7892
▁بلد	-7893
▁شايد	-7894
▁اسرار	-7895
▁جالبی	-7896
▁لاغری	-7897
▁همگان	-7898
▁آفریقا	-7899
▁چندانی	-7900
AT	-7901
پن	-7902
▁برید	-7903
▁متعهد	-7904
▁داروها	-7905
▁سربازان	-7906
▁اینو	-7907
▁بعدش	-7908
▁حقيقت	-7909
▁رونالدو	-7910
▁سه‌شنبه	-7911
تمام	-7912
▁هکت	-7913
▁هموط	-7914
▁واقعه	-7915
▁شخصیتی	-7916
▁مشكلات	-7917
▁اینجاست	-7918
▁موتورهای	-7919
:‌	-7920
سف	-7921
يرد	-7922
کانس	-7923
▁دوام	-7924
▁كمتر	-7925
▁پتان	-7926
▁الدین	-7927
▁سایپا	-7928
▁موردی	-7929
ews	-7930
▁هک	-7931
▁وت	-7932
حدود	-7933
▁فرید	-7934
▁مؤمن	-7935
▁پویا	-7936
▁کیسه	-7937
▁می‌خواهند	-7938
مهر	-7939
▁شاخ	-7940
▁پائ	-7941
▁پرش	-7942
▁مناظ	-7943
▁نشاط	-7944
▁تحقيق	-7945
▁عباسی	-7946
▁وگرنه	-7947
▁انتقام	-7948
آفر	-7949
زید	-7950
ضاي	-7951
▁فایده	-7952
▁نواحی	-7953
▁اجباری	-7954
▁کابینه	-7955
▁انسان‌ها	-7956
▁38	-7957
▁باه	-7958
▁خاك	-7959
‌بندی	-7960
▁القا	-7961
▁سینا	-7962
▁۲۰۱۴	-7963
▁شریعت	-7964
▁پرسنل	-7965
▁آبادان	-7966
▁قضائیه	-7967
▁ناگهان	-7968
▁اسماعیل	-7969
:30	-7970
ort	-7971
ارید	-7972
▁محوطه	-7973
▁کتابی	-7974
▁ماموران	-7975
▁اندرویدی	-7976
کنم	-7977
▁خد	-7978
▁گش	-7979
▁رجوع	-7980
▁آموخت	-7981
▁برسند	-7982
▁سوراخ	-7983
▁نسبتا	-7984
▁ناگهانی	-7985
▁خزر	-7986
▁قاج	-7987
▁فرقه	-7988
▁مزار	-7989
▁ماساژ	-7990
▁درخصوص	-7991
▁ورق	-7992
▁شباهت	-7993
▁پیروی	-7994
▁مردمان	-7995
▁میگردد	-7996
▁خداحافظ	-7997
۴۹	-7998
بوک	-7999
وجود	-8000
▁بیه	-8001
▁مدد	-8002
▁۱۹۸	-8003
الیسم	-8004
▁تهيه	-8005
▁تخصیص	-8006
▁تخلیه	-8007
▁پنجمین	-8008
art	-8009
فره	-8010
ناز	-8011
▁ولا	-8012
▁وگو	-8013
▁مرسی	-8014
▁بارسل	-8015
▁نکنیم	-8016
▁میگیرد	-8017
ضاح	-8018
منظ	-8019
اهاي	-8020
▁خاشق	-8021
▁رفتیم	-8022
▁قیامت	-8023
▁يافته	-8024
▁نیستید	-8025
۴۷	-8026
▁=	-8027
▁كا	-8028
▁خشن	-8029
▁۳۰۰	-8030
▁زغال	-8031
▁نیکی	-8032
▁افشار	-8033
▁بيرون	-8034
▁مقادیر	-8035
▁کیلومتری	-8036
94	-8037
حلی	-8038
▁سرت	-8039
▁شیو	-8040
▁چنگ	-8041
▁دعای	-8042
▁هفتاد	-8043
▁درآورد	-8044
▁پالایش	-8045
▁۹۲	-8046
ونیک	-8047
▁تفر	-8048
▁صرفاً	-8049
▁انسانها	-8050
▁برگرفته	-8051
▁هواشناسی	-8052
قط	-8053
▁طع	-8054
كاري	-8055
▁حائ	-8056
▁محص	-8057
قانونی	-8058
▁اعتصاب	-8059
▁جذابیت	-8060
▁متقابل	-8061
▁پلاستیک	-8062
▁مُ	-8063
خواب	-8064
▁سري	-8065
▁تایپ	-8066
▁رسیدند	-8067
DF	-8068
۵۹	-8069
▁پستی	-8070
▁اينترنت	-8071
ob	-8072
▁۸۸	-8073
▁بوم	-8074
رارتی	-8075
▁خوار	-8076
▁عنایت	-8077
▁منتهی	-8078
راق	-8079
▁قص	-8080
▁جسد	-8081
▁مشکی	-8082
▁یخچال	-8083
▁نامناسب	-8084
۴۶	-8085
▁حي	-8086
بزرگ	-8087
فعال	-8088
▁شال	-8089
▁وری	-8090
▁گیت	-8091
▁حسين	-8092
▁مراد	-8093
▁یوسف	-8094
▁بوده‌اند	-8095
70	-8096
آیا	-8097
ارک	-8098
ويت	-8099
امید	-8100
▁ممت	-8101
جستان	-8102
se	-8103
ect	-8104
اهن	-8105
داع	-8106
ینا	-8107
▁An	-8108
ادمی	-8109
مايش	-8110
نجان	-8111
▁قاطع	-8112
▁نتیج	-8113
▁ناپذیر	-8114
▁التحصیل	-8115
▁مي‌تواند	-8116
خي	-8117
▁عار	-8118
▁خمیر	-8119
▁دونم	-8120
▁زنند	-8121
▁درسته	-8122
▁مهاجم	-8123
▁امیرالم	-8124
▁مك	-8125
▁دوس	-8126
خواهد	-8127
▁دفعه	-8128
▁کسب‌و	-8129
▁بيماري	-8130
▁نیستیم	-8131
▁می‌نویس	-8132
▁نیشابور	-8133
av	-8134
بره	-8135
۲۰۰	-8136
▁شتر	-8137
▁قشر	-8138
▁منز	-8139
▁بادی	-8140
▁بروم	-8141
▁تسلی	-8142
▁خطبه	-8143
▁هرچی	-8144
▁اعضاء	-8145
▁فینال	-8146
▁(0	-8147
عباس	-8148
▁تهم	-8149
▁صفت	-8150
▁امّا	-8151
▁برات	-8152
▁مکرر	-8153
▁هلند	-8154
▁وضعيت	-8155
ُر	-8156
اجی	-8157
▁98	-8158
▁لن	-8159
جمله	-8160
وتاه	-8161
▁چاقی	-8162
▁کلسیم	-8163
▁حرارتی	-8164
فن	-8165
خون	-8166
▁اصغر	-8167
▁كوچك	-8168
▁یقین	-8169
▁یونان	-8170
▁مسئولی	-8171
▁اعتبارات	-8172
▁Com	-8173
▁تعلی	-8174
▁صفحه‌های	-8175
ile	-8176
▁شاپ	-8177
▁لاک	-8178
▁بارز	-8179
▁بزنند	-8180
▁تاثير	-8181
▁پروند	-8182
▁گاران	-8183
▁یاسوج	-8184
▁ایستاد	-8185
▁برابری	-8186
▁مجاهدین	-8187
▁مشاوران	-8188
ِی	-8189
جاب	-8190
html	-8191
▁شصت	-8192
▁کالری	-8193
▁رقابتی	-8194
▁متوسطه	-8195
ؤمن	-8196
▁5.	-8197
****	-8198
▁حاجی	-8199
▁ربطی	-8200
▁مالي	-8201
▁کربن	-8202
ازل	-8203
▁تیز	-8204
▁فعل	-8205
▁مفت	-8206
▁تبعی	-8207
▁اطاعت	-8208
▁خداست	-8209
▁ولادت	-8210
▁عده‌ای	-8211
▁کلیدواژه	-8212
شق	-8213
۳۸	-8214
age	-8215
یسم	-8216
▁عكس	-8217
▁گلو	-8218
ادامه	-8219
الدین	-8220
▁حواس	-8221
▁چندی	-8222
▁صداقت	-8223
▁ولتاژ	-8224
▁بیوگرافی	-8225
يفيت	-8226
چرخه	-8227
▁روى	-8228
▁غال	-8229
▁سوژه	-8230
▁نويس	-8231
▁سنسور	-8232
▁قاعده	-8233
▁مقیاس	-8234
▁میگفت	-8235
▁انداخته	-8236
▁پذیرایی	-8237
▁می‌توانیم	-8238
33	-8239
َع	-8240
▁عف	-8241
▁آنجایی	-8242
▁یکپارچه	-8243
بیان	-8244
هایش	-8245
▁محاک	-8246
▁تعلیم	-8247
▁توطئه	-8248
▁موجودی	-8249
▁بازیگری	-8250
▁نوزادان	-8251
زیر	-8252
▁سکته	-8253
▁هالی	-8254
میلیون	-8255
▁آپلود	-8256
▁وسيله	-8257
▁احتمالاً	-8258
▁دایی	-8259
▁نکنه	-8260
▁سئوال	-8261
▁کلینی	-8262
▁جمهوري	-8263
▁سنگینی	-8264
▁می‌خواهید	-8265
ard	-8266
کلت	-8267
▁آلت	-8268
▁نگذ	-8269
ه‌شده	-8270
▁آغوش	-8271
▁بوسی	-8272
▁ديده	-8273
▁ورشک	-8274
▁نبايد	-8275
▁بپردازد	-8276
▁مي‌كنند	-8277
98	-8278
ive	-8279
اهب	-8280
▁(4	-8281
ستید	-8282
‌ماه	-8283
‌نظر	-8284
▁آوی	-8285
▁پژو	-8286
▁رزمی	-8287
▁همیشگی	-8288
ub	-8289
ّل	-8290
روب	-8291
لاط	-8292
▁09	-8293
سازي	-8294
▁سوپر	-8295
▁لیمو	-8296
▁حسابی	-8297
▁مقوله	-8298
▁بچه‌ها	-8299
▁غیرقابل	-8300
زمین	-8301
▁بنز	-8302
▁جبر	-8303
▁دشت	-8304
▁شدی	-8305
▁مبح	-8306
▁بمان	-8307
▁سپرد	-8308
▁۱۳۸۹	-8309
▁حوصله	-8310
▁لحظات	-8311
▁میرزا	-8312
▁پرندگان	-8313
الوگ	-8314
▁نشن	-8315
▁موها	-8316
▁خدایی	-8317
▁نقلیه	-8318
▁همچین	-8319
▁دادرسی	-8320
▁عملكرد	-8321
▁فضاهای	-8322
▁میخواد	-8323
ers	-8324
فول	-8325
ممن	-8326
▁دفن	-8327
‌هایش	-8328
▁استک	-8329
▁مصدا	-8330
▁حدودی	-8331
▁محتوی	-8332
▁نيروي	-8333
▁فرآورده	-8334
▁برچسب‌ها	-8335
SS	-8336
جانبه	-8337
هرانی	-8338
▁باشن	-8339
▁تراک	-8340
▁آوریل	-8341
▁ارگان	-8342
▁زاویه	-8343
▁محلول	-8344
▁خاندان	-8345
▁ماهانه	-8346
▁گارانتی	-8347
▁بازنشستگی	-8348
غت	-8349
۳۴	-8350
ضار	-8351
هره	-8352
▁رؤ	-8353
▁گه	-8354
▁پیت	-8355
▁مفصل	-8356
▁گربه	-8357
▁دیواری	-8358
▁پرداختند	-8359
▁ایمن	-8360
▁سانس	-8361
▁بستری	-8362
▁خوشگل	-8363
▁رهایی	-8364
▁پردازد	-8365
........	-8366
▁دستورات	-8367
عاتی	-8368
▁انر	-8369
▁دوی	-8370
▁مرس	-8371
▁...،	-8372
▁ظروف	-8373
▁دستان	-8374
▁مساحت	-8375
▁توانستند	-8376
؟/	-8377
ختر	-8378
فقط	-8379
▁57	-8380
▁ضل	-8381
رهای	-8382
▁غار	-8383
▁احمر	-8384
▁کليه	-8385
▁استخر	-8386
▁امواج	-8387
▁بردند	-8388
▁ممنوعیت	-8389
▁بزرگ‌ترین	-8390
شي	-8391
▁كسب	-8392
▁لمس	-8393
▁منه	-8394
▁خوبي	-8395
▁مكان	-8396
▁نگفت	-8397
▁اقلیم	-8398
▁داوران	-8399
▁کامیون	-8400
ايع	-8401
يزي	-8402
مدیر	-8403
▁مداخ	-8404
▁کروم	-8405
▁هکتار	-8406
▁بایگانی	-8407
َّه	-8408
ادری	-8409
▁1391	-8410
▁آئین	-8411
▁علیها	-8412
▁مشخصی	-8413
▁شفافیت	-8414
‌الاسلام	-8415
طال	-8416
ستون	-8417
نیوز	-8418
▁بغل	-8419
▁ترت	-8420
▁تها	-8421
▁مسائ	-8422
انیاهو	-8423
▁کارخان	-8424
▁بگذارند	-8425
▁انتظارات	-8426
.”	-8427
ّد	-8428
لفل	-8429
ياد	-8430
اونی	-8431
گوست	-8432
▁میث	-8433
▁همش	-8434
▁پیک	-8435
▁ایدز	-8436
▁تابلو	-8437
▁تکراری	-8438
".	-8439
▁ذره	-8440
▁حرمت	-8441
▁ورژن	-8442
الیایی	-8443
▁برمی‌	-8444
▁مقصود	-8445
▁پوسته	-8446
▁ابتکار	-8447
▁بوسیله	-8448
▁تحق	-8449
▁فیر	-8450
جوانی	-8451
▁شلوغ	-8452
▁اسلحه	-8453
▁ايمان	-8454
▁مطلبی	-8455
▁گمراه	-8456
▁می‌زند	-8457
▁مسافرتی	-8458
▁بپیوندید	-8459
▁تغییراتی	-8460
▁آرت	-8461
▁تبر	-8462
▁بعضي	-8463
▁مستح	-8464
▁جهاني	-8465
▁خبرگان	-8466
▁نظرسنجی	-8467
▁بارسلونا	-8468
صف	-8469
▁آيد	-8470
▁۱۹۷	-8471
▁احیا	-8472
▁روبه	-8473
▁سوسی	-8474
▁ملاک	-8475
▁تثبیت	-8476
▁سهمیه	-8477
▁یگانه	-8478
▁اینکار	-8479
▁معصومه	-8480
▁هایشان	-8481
▁کارآمد	-8482
az	-8483
ضر	-8484
كور	-8485
روان	-8486
▁ثمر	-8487
▁ناک	-8488
▁یاب	-8489
▁واکس	-8490
▁ادیان	-8491
▁بدهیم	-8492
▁برانکو	-8493
▁مطمئنا	-8494
▁مي‌باشد	-8495
نق	-8496
rig	-8497
فهم	-8498
▁2)	-8499
▁تنظ	-8500
▁ويژ	-8501
▁تدار	-8502
▁سنین	-8503
▁فرقی	-8504
▁فقیر	-8505
▁مخرب	-8506
▁تاریک	-8507
▁تجویز	-8508
▁قدردانی	-8509
▁۰۱	-8510
▁۴۵	-8511
▁منس	-8512
▁كدام	-8513
▁وسعت	-8514
▁بازگرد	-8515
▁اردوغان	-8516
ساط	-8517
آگاه	-8518
وئید	-8519
▁تمر	-8520
▁جفت	-8521
ستیکی	-8522
▁1390	-8523
▁مجرد	-8524
▁پيشر	-8525
▁چشمه	-8526
▁تربيت	-8527
▁فرشته	-8528
▁اتفاقا	-8529
▁بازخورد	-8530
واس	-8531
▁آلی	-8532
▁تنفس	-8533
▁طلای	-8534
▁عارف	-8535
▁تاپیک	-8536
▁مأمور	-8537
▁مهرماه	-8538
‌سی	-8539
▁مخل	-8540
▁گاو	-8541
▁سمین	-8542
▁تبديل	-8543
▁تبعیض	-8544
▁سوگند	-8545
▁معافیت	-8546
‌کنندگان	-8547
▁تاسیسات	-8548
▁گوشی‌های	-8549
ئي	-8550
▁۰۲	-8551
▁حکیم	-8552
▁علمای	-8553
▁گرافیکی	-8554
ip	-8555
يق	-8556
الیف	-8557
▁بول	-8558
▁اثری	-8559
▁اعظم	-8560
▁بلیت	-8561
▁پیامی	-8562
▁نبودند	-8563
▁انتخابی	-8564
▁داستانی	-8565
▁نتانیاهو	-8566
▁­	-8567
باس	-8568
قال	-8569
▁يکي	-8570
▁رواج	-8571
▁کمدی	-8572
▁تشریف	-8573
▁شوراي	-8574
▁مشروط	-8575
▁گرانی	-8576
▁گرجستان	-8577
▁خوانندگان	-8578
راز	-8579
▁غول	-8580
▁سلفی	-8581
▁نقشی	-8582
▁بیفتد	-8583
▁مترجم	-8584
▁جنگنده	-8585
▁گرفتگی	-8586
▁برایشان	-8587
▁خوشحالم	-8588
▁بین‌الملل	-8589
ریا	-8590
نجی	-8591
یسی	-8592
▁قن	-8593
▁ارم	-8594
دینگی	-8595
▁تویی	-8596
▁لایک	-8597
▁نایب	-8598
▁دوچرخه	-8599
▁همسران	-8600
یف	-8601
الحی	-8602
چهار	-8603
▁قرض	-8604
▁اکسی	-8605
▁سنگی	-8606
▁سوئد	-8607
▁عملا	-8608
▁مبحث	-8609
▁زیتون	-8610
▁شنیدم	-8611
▁عالیه	-8612
▁نشینی	-8613
▁اقیانوس	-8614
▁طباطبایی	-8615
▁رن	-8616
▁ارج	-8617
▁تزی	-8618
▁حبی	-8619
▁پدا	-8620
▁آینه	-8621
▁هیچی	-8622
▁وزنه	-8623
▁پرستاری	-8624
نماید	-8625
▁سرود	-8626
▁فلفل	-8627
▁كودك	-8628
▁گرديد	-8629
▁آلومینی	-8630
ضم	-8631
ئون	-8632
ترز	-8633
▁بخشد	-8634
▁دهيد	-8635
▁دیجی	-8636
▁میهن	-8637
▁یگان	-8638
ind	-8639
▁ad	-8640
▁شل	-8641
ه‌رو	-8642
▁ماب	-8643
▁جوجه	-8644
به‌های	-8645
▁ترسناک	-8646
▁سلیمانی	-8647
▁دیدگاهتان	-8648
▁نط	-8649
▁اسن	-8650
▁راد	-8651
▁نوت	-8652
▁کمکی	-8653
انیایی	-8654
▁شماری	-8655
▁خیابانی	-8656
▁نقدینگی	-8657
▁همسرتان	-8658
▁تولیدکنندگان	-8659
2.	-8660
▁سلم	-8661
▁استن	-8662
▁اسما	-8663
▁تایل	-8664
▁فیفا	-8665
▁دوستم	-8666
▁صراحت	-8667
▁تعاونی	-8668
▁دبستان	-8669
▁بمباران	-8670
▁روستاهای	-8671
▁قراردادهای	-8672
2-	-8673
دق	-8674
/13	-8675
اجد	-8676
انید	-8677
میان	-8678
گيرد	-8679
▁لنز	-8680
▁ویل	-8681
▁تحرک	-8682
▁میدن	-8683
▁بگویند	-8684
▁طراحان	-8685
▁انداختن	-8686
۴۲	-8687
▁l	-8688
ايج	-8689
جلس	-8690
▁هدا	-8691
▁صدام	-8692
▁حرکتی	-8693
▁اطلاع‌رسانی	-8694
one	-8695
رگان	-8696
زبان	-8697
▁آرژ	-8698
▁حلق	-8699
▁غالب	-8700
▁اکسید	-8701
▁خوندم	-8702
▁سواحل	-8703
▁آزمايش	-8704
▁منتقدان	-8705
▁حوزه‌های	-8706
وى	-8707
▁x	-8708
فضل	-8709
گنال	-8710
▁آواز	-8711
▁سلطه	-8712
▁آستان	-8713
▁تشییع	-8714
▁خدایا	-8715
▁سردرد	-8716
▁نباشه	-8717
▁كودكان	-8718
▁گواهین	-8719
▁[1]	-8720
▁اهر	-8721
▁احادی	-8722
▁اقلام	-8723
▁ميشود	-8724
▁نمایشی	-8725
▁می‌روند	-8726
▁فرهنگیان	-8727
وَ	-8728
▁موش	-8729
▁ميل	-8730
▁لامپ	-8731
▁نیمی	-8732
▁برعکس	-8733
▁سکونت	-8734
▁انصاری	-8735
▁بازنشستگان	-8736
▁دانشگاه‌ها	-8737
نال	-8738
گوش	-8739
جدید	-8740
▁سمی	-8741
▁لکه	-8742
▁بندي	-8743
▁پراک	-8744
▁تومور	-8745
▁مساجد	-8746
▁می‌زن	-8747
▁تشکیلات	-8748
۵۲	-8749
روک	-8750
ماده	-8751
▁عیب	-8752
▁بابک	-8753
▁ترتيب	-8754
▁خطرات	-8755
▁مصادف	-8756
▁جزییات	-8757
▁پوشیده	-8758
99	-8759
▁(4)	-8760
▁زار	-8761
▁بنای	-8762
▁نیام	-8763
▁گویم	-8764
▁اصولی	-8765
▁ساعتی	-8766
▁پاسخ‌	-8767
▁تیرماه	-8768
▁عواملی	-8769
▁شرکت‌ها	-8770
▁تاثیرگذار	-8771
28	-8772
31	-8773
َب	-8774
▁حات	-8775
▁وبه	-8776
▁اینک	-8777
▁حالي	-8778
▁مزمن	-8779
▁میرم	-8780
▁غمگین	-8781
▁قلمرو	-8782
▁مسموم	-8783
▁غیرقانونی	-8784
!»	-8785
pt	-8786
عا	-8787
▁ثال	-8788
▁بابل	-8789
▁گياه	-8790
▁انقدر	-8791
▁قربان	-8792
▁مادری	-8793
▁اطرافی	-8794
▁جاسوسی	-8795
▁شریعتی	-8796
▁فیسبوک	-8797
مص	-8798
▁زاه	-8799
▁زرت	-8800
▁خیره	-8801
▁شهري	-8802
▁همای	-8803
▁آنهاست	-8804
▁ابزاری	-8805
▁بیرونی	-8806
▁مناظره	-8807
▁بازبینی	-8808
▁روشنایی	-8809
▁پتانسیل	-8810
ه‌تر	-8811
ورند	-8812
▁the	-8813
▁سين	-8814
▁زینب	-8815
▁سجاد	-8816
▁نامی	-8817
▁نگرفت	-8818
▁آبیاری	-8819
▁می‌باشند	-8820
▁1395-05-1	-8821
فرد	-8822
▁47	-8823
▁آبادی	-8824
▁اراضی	-8825
▁مدیری	-8826
▁منافق	-8827
▁وزرای	-8828
▁سالروز	-8829
▁نوجوانی	-8830
▁صهیونیست	-8831
▁کارآفرین	-8832
▁داشته‌اند	-8833
▁ورزشکاران	-8834
34	-8835
ke	-8836
لزم	-8837
ليس	-8838
▁لک	-8839
حالا	-8840
وقتی	-8841
▁تصاد	-8842
▁جرای	-8843
▁شکاف	-8844
▁غفلت	-8845
▁احیای	-8846
▁تضعیف	-8847
▁صورتي	-8848
▁فرهاد	-8849
▁نتايج	-8850
▁ديدگاه	-8851
▁مواجهه	-8852
▁میلیونی	-8853
▁کاربرانی	-8854
ظت	-8855
لک	-8856
خیز	-8857
▁مضر	-8858
▁چرم	-8859
اتوری	-8860
▁صمیم	-8861
▁ببریم	-8862
▁ببیند	-8863
▁تعقیب	-8864
▁شمشیر	-8865
▁مندرج	-8866
▁مي‌گو	-8867
▁این‌ها	-8868
▁تفاوتی	-8869
▁پارکینگ	-8870
▁کشورهایی	-8871
ish	-8872
كته	-8873
▁150	-8874
▁۱۳۶	-8875
پرستی	-8876
▁برگه	-8877
▁بگید	-8878
▁قاعد	-8879
▁محرک	-8880
▁اندوه	-8881
▁بحرین	-8882
▁خلافت	-8883
▁مصداق	-8884
▁موسوم	-8885
▁خریدار	-8886
▁دلایلی	-8887
▁راههای	-8888
▁دیپلماسی	-8889
امام	-8890
▁آنكه	-8891
▁نشری	-8892
▁اقشار	-8893
▁تجلیل	-8894
▁عجیبی	-8895
▁مختصر	-8896
▁منصور	-8897
▁حجت‌الاسلام	-8898
عصر	-8899
▁گچ	-8900
اشته	-8901
▁فور	-8902
▁جرائ	-8903
▁لرزه	-8904
▁پایش	-8905
▁کوشش	-8906
▁اجزای	-8907
▁تلفات	-8908
▁رعايت	-8909
▁ناچار	-8910
▁نشوند	-8911
▁پیدایش	-8912
▁برداشتن	-8913
ud	-8914
۴۱	-8915
نفر	-8916
وسه	-8917
▁تنی	-8918
▁ببند	-8919
▁ریلی	-8920
▁پهلو	-8921
▁اعداد	-8922
▁مارکت	-8923
▁بشنوید	-8924
▁بندگان	-8925
▁شاعران	-8926
ه‌برداری	-8927
▁راه‌های	-8928
▁الکترونيک	-8929
­­	-8930
▁فام	-8931
▁دقای	-8932
▁کولر	-8933
▁خلبان	-8934
▁طوفان	-8935
▁ايراني	-8936
▁نمایان	-8937
▁Al	-8938
دهاي	-8939
▁شفا	-8940
▁منی	-8941
▁نصر	-8942
▁خوری	-8943
▁معای	-8944
▁پايه	-8945
▁اماکن	-8946
▁سلطنت	-8947
▁گسترد	-8948
▁آرژانت	-8949
▁جنجالی	-8950
▁پاسخگو	-8951
۵۱	-8952
مدان	-8953
▁شمسی	-8954
▁اینجوری	-8955
▁گواهینامه	-8956
وزیر	-8957
ویژه	-8958
▁افق	-8959
▁قاره	-8960
▁واتس	-8961
▁بعداز	-8962
▁بهرام	-8963
▁بکشید	-8964
▁افسانه	-8965
▁مستلزم	-8966
ذه	-8967
وض	-8968
▁طي	-8969
▁بات	-8970
right	-8971
مایند	-8972
▁اولا	-8973
▁چاره	-8974
▁سهامی	-8975
▁مجلات	-8976
▁گفتنی	-8977
▁آسمانی	-8978
▁نمی‌کنند	-8979
قاب	-8980
▁هف	-8981
کتاب	-8982
▁مکه	-8983
▁پرخ	-8984
نشینی	-8985
▁ادغام	-8986
▁بگیره	-8987
▁فلزات	-8988
▁افراطی	-8989
▁انتصاب	-8990
▁هیچگونه	-8991
ity	-8992
ram	-8993
▁64	-8994
آموزش	-8995
▁بگير	-8996
▁مهمتر	-8997
▁اپراتور	-8998
▁می‌برند	-8999
ast	-9000
کنه	-9001
▁7-	-9002
▁کیم	-9003
▁اسیر	-9004
▁خرده	-9005
▁غدیر	-9006
▁آگوست	-9007
▁اقامه	-9008
▁نزديك	-9009
▁کیهان	-9010
▁فرسوده	-9011
▁ميليون	-9012
▁چیزهای	-9013
▁بازرگان	-9014
!)	-9015
ach	-9016
يدي	-9017
▁دلش	-9018
▁سفت	-9019
▁هیر	-9020
▁صریح	-9021
▁زندگى	-9022
▁كوتاه	-9023
▁انساني	-9024
▁پراکنده	-9025
مثل	-9026
▁))	-9027
▁یل	-9028
شمنی	-9029
وبات	-9030
▁توت	-9031
▁هدر	-9032
▁پلک	-9033
▁کشد	-9034
گرامی	-9035
▁آيات	-9036
▁فانت	-9037
▁پرتو	-9038
▁برویم	-9039
▁خاتمه	-9040
▁زبانی	-9041
▁مجالس	-9042
▁میدونم	-9043
▁گرفتیم	-9044
▁می‌گذارد	-9045
▁آرد	-9046
▁نشه	-9047
▁خنثی	-9048
▁متحرک	-9049
▁وادار	-9050
▁کاراک	-9051
▁مطالبه	-9052
▁میدهند	-9053
▁اقداماتی	-9054
NA	-9055
▁زل	-9056
▁۰۷	-9057
غالی	-9058
▁Pro	-9059
▁آرم	-9060
▁جهش	-9061
▁هاش	-9062
▁باکس	-9063
▁طالب	-9064
▁مفاد	-9065
▁اونها	-9066
▁بکنید	-9067
▁زحمات	-9068
▁گفتیم	-9069
▁یابند	-9070
▁مسائلی	-9071
▁محرومیت	-9072
▁می‌خورد	-9073
▁کسب‌وکار	-9074
▁بهره‌برداری	-9075
▁بدو	-9076
▁پلت	-9077
خواسته	-9078
▁اطلاق	-9079
▁صالحی	-9080
▁قاجار	-9081
▁نیستی	-9082
▁آموزشي	-9083
▁جانباز	-9084
▁پیراهن	-9085
گري	-9086
▁91	-9087
▁وع	-9088
صاری	-9089
قیمت	-9090
▁***	-9091
▁آنی	-9092
▁رصد	-9093
▁کما	-9094
▁درام	-9095
▁عیسی	-9096
▁غلظت	-9097
▁استعم	-9098
▁بپذیر	-9099
▁وقایع	-9100
▁جدیدتر	-9101
▁نوسازی	-9102
▁همبستگی	-9103
▁بزرگداشت	-9104
کال	-9105
▁یع	-9106
▁بالق	-9107
▁برکت	-9108
▁پنیر	-9109
▁جولای	-9110
▁فلسفی	-9111
▁مقاطع	-9112
▁توجیهی	-9113
▁قوانين	-9114
▁نکردند	-9115
▁دانشمند	-9116
▁گیگابایت	-9117
▁لم	-9118
دارد	-9119
شمار	-9120
▁لرز	-9121
▁ثالث	-9122
▁حمای	-9123
▁سنجی	-9124
▁نجفی	-9125
▁الكتر	-9126
▁ولايت	-9127
▁احتیاط	-9128
▁مؤسسات	-9129
▁آموزشگاه	-9130
▁شناسنامه	-9131
۵۴	-9132
يفه	-9133
ُوا	-9134
نمود	-9135
‌بوک	-9136
▁آنت	-9137
▁پره	-9138
اسازی	-9139
▁2012	-9140
▁کالی	-9141
▁تراکم	-9142
▁کاشان	-9143
▁بپرسید	-9144
▁داشتید	-9145
▁سمینار	-9146
▁کاردانی	-9147
▁گونه‌ای	-9148
eh	-9149
»؛	-9150
تب	-9151
▁بذ	-9152
▁كاف	-9153
▁مبدل	-9154
▁مصدق	-9155
▁معضل	-9156
▁گذرد	-9157
▁تعريف	-9158
▁جرایم	-9159
▁اکسیژن	-9160
▁استکبار	-9161
▁۴۸	-9162
▁120	-9163
▁الکل	-9164
▁خلوت	-9165
▁مخرو	-9166
▁حماسه	-9167
▁خواجه	-9168
▁سیاره	-9169
▁تغییری	-9170
▁کارگروه	-9171
▁امتحانات	-9172
۵۳	-9173
▁02	-9174
انند	-9175
▁محك	-9176
▁بینید	-9177
▁خلیفه	-9178
▁طبقات	-9179
▁طبيعي	-9180
▁مذاهب	-9181
▁بنیادی	-9182
▁تصادفی	-9183
▁می‌رفت	-9184
▁ناشناس	-9185
▁گناهان	-9186
▁پشتیبان	-9187
▁جهانگیری	-9188
ليل	-9189
▁پد	-9190
▁كسى	-9191
▁ماز	-9192
▁میه	-9193
▁اراک	-9194
▁نتون	-9195
▁هندو	-9196
▁گويد	-9197
آنلاین	-9198
▁بدیهی	-9199
▁وسیعی	-9200
▁مربیان	-9201
▁مفهومی	-9202
▁دریافتی	-9203
▁فرماندهان	-9204
،،	-9205
كام	-9206
اصره	-9207
▁بخر	-9208
▁بخیر	-9209
▁آسیای	-9210
▁آموزی	-9211
▁پايين	-9212
▁بیگانه	-9213
▁همدیگر	-9214
▁هموطنان	-9215
▁امریکایی	-9216
opy	-9217
▁بِ	-9218
▁۱٫	-9219
پاشی	-9220
‌است	-9221
▁فلا	-9222
▁بازه	-9223
▁ریاض	-9224
▁معرفي	-9225
▁نوشتم	-9226
▁حمایتی	-9227
▁كاربرد	-9228
▁وارداتی	-9229
▁معیارهای	-9230
▁تصمیم‌گیری	-9231
پک	-9232
ویان	-9233
▁حسی	-9234
▁دره	-9235
▁منا	-9236
له‌ای	-9237
▁نکنم	-9238
▁آخرين	-9239
▁ششمین	-9240
▁افتادن	-9241
▁تهرانی	-9242
▁سس	-9243
اندی	-9244
سانی	-9245
▁آبر	-9246
▁ناص	-9247
▁افشا	-9248
▁جمال	-9249
▁وزير	-9250
▁دشمنی	-9251
▁نداری	-9252
▁نمیاد	-9253
▁طرح‌های	-9254
4-	-9255
▁a	-9256
اسر	-9257
تای	-9258
سنگ	-9259
▁آرش	-9260
▁آره	-9261
▁بگه	-9262
▁مصاف	-9263
گذارند	-9264
▁ترسیم	-9265
▁پستان	-9266
▁اسلامى	-9267
▁نمیکنه	-9268
3.	-9269
iz	-9270
کون	-9271
‌پذیر	-9272
▁بروج	-9273
▁درهم	-9274
▁نهای	-9275
فرماید	-9276
▁آسانی	-9277
▁ساکنان	-9278
▁درآمدهای	-9279
رع	-9280
▁65	-9281
▁سك	-9282
▁كي	-9283
▁حیث	-9284
▁عرق	-9285
▁هار	-9286
▁پرک	-9287
طلبان	-9288
▁تصدی	-9289
▁فضاي	-9290
▁گنبد	-9291
▁اردوی	-9292
▁حقایق	-9293
▁ببینند	-9294
▁سیگنال	-9295
ّر	-9296
▁46	-9297
▁85	-9298
▁وى	-9299
▁۰۰	-9300
▁۳۲	-9301
▁کثی	-9302
▁جناح	-9303
▁خشکی	-9304
▁سروش	-9305
▁کروبی	-9306
▁کریست	-9307
▁بیاورد	-9308
▁سفرهای	-9309
▁پردازنده	-9310
▁شبی	-9311
بررسی	-9312
▁بعضا	-9313
▁شهاب	-9314
▁كنید	-9315
▁بادام	-9316
▁میزنه	-9317
▁وکالت	-9318
▁تخلفات	-9319
▁محاصره	-9320
▁روستاها	-9321
▁;	-9322
ear	-9323
۱۳۹۴	-9324
▁یكی	-9325
▁۴۰۰	-9326
ترهای	-9327
منظور	-9328
▁بزنیم	-9329
▁مسخره	-9330
▁ندیده	-9331
▁بحرانی	-9332
▁تاثیری	-9333
▁فهمیدم	-9334
▁هدفمند	-9335
▁پیوستن	-9336
▁تیم‌های	-9337
▁سازگاری	-9338
▁میتوانند	-9339
▁بزرگسالان	-9340
][	-9341
پاد	-9342
▁Ad	-9343
▁بیل	-9344
▁سعد	-9345
▁غزل	-9346
▁مرج	-9347
▁بعید	-9348
▁رایت	-9349
▁هجوم	-9350
▁العمل	-9351
▁تکثیر	-9352
▁جرائم	-9353
▁دریچه	-9354
▁پذیرد	-9355
▁خواستگاری	-9356
own	-9357
ئیس	-9358
مللي	-9359
▁الد	-9360
مداری	-9361
▁رفیق	-9362
▁تمامي	-9363
▁متشکل	-9364
▁فروخته	-9365
خط	-9366
هه	-9367
۴۳	-9368
▁۳۷	-9369
▁ارث	-9370
▁اینچ	-9371
▁دمکر	-9372
▁ساند	-9373
▁قبلاً	-9374
▁بریزید	-9375
▁کالاها	-9376
▁کلینیک	-9377
ریع	-9378
▁ذی	-9379
المه	-9380
مجاز	-9381
▁دال	-9382
▁منچ	-9383
▁ماری	-9384
▁ستایش	-9385
▁عاملی	-9386
▁مهریه	-9387
▁پیغام	-9388
ُل	-9389
ْت	-9390
نوع	-9391
ياي	-9392
پاس	-9393
▁Re	-9394
▁جک	-9395
▁وزش	-9396
▁بکشد	-9397
▁طرحی	-9398
▁غیرم	-9399
▁گشته	-9400
▁هدايت	-9401
▁پدافند	-9402
▁تاثیرات	-9403
▁ناتوانی	-9404
▁نتوانسته	-9405
if	-9406
مير	-9407
▁__	-9408
▁عين	-9409
▁شجاع	-9410
▁وحید	-9411
▁چروک	-9412
▁الزامی	-9413
▁میگوید	-9414
▁خداحافظی	-9415
df	-9416
▁r	-9417
کوک	-9418
▁…..	-9419
▁تقلب	-9420
▁درشت	-9421
▁غرور	-9422
▁مرخص	-9423
▁انرژي	-9424
▁بیستم	-9425
▁اختیارات	-9426
▁خریداران	-9427
▁گرفته‌اند	-9428
ge	-9429
ادو	-9430
ایا	-9431
▁75	-9432
▁کج	-9433
▁شمس	-9434
▁گلی	-9435
▁تساوی	-9436
‌العاده	-9437
مونی	-9438
▁بسا	-9439
▁درص	-9440
شماری	-9441
▁مستقيم	-9442
▁محبوبیت	-9443
▁سیستم‌های	-9444
▁آزمایشگاهی	-9445
َد	-9446
ago	-9447
ont	-9448
سمی	-9449
▁زع	-9450
ress	-9451
بتون	-9452
▁خلاص	-9453
▁۲۰۱۳	-9454
▁بلوار	-9455
▁خجالت	-9456
▁سازمان‌های	-9457
قدس	-9458
گشت	-9459
▁:))	-9460
▁ايم	-9461
▁بخت	-9462
▁لفظ	-9463
مردان	-9464
▁بنظر	-9465
▁تومن	-9466
▁اهدای	-9467
▁سیستمی	-9468
ED	-9469
نن	-9470
۹۹	-9471
ه‌نگ	-9472
▁شرع	-9473
▁فاش	-9474
▁هول	-9475
▁تهمت	-9476
▁عکسی	-9477
▁وسلم	-9478
▁کتبی	-9479
▁آرامی	-9480
▁ساحلی	-9481
▁احادیث	-9482
▁بیانگر	-9483
▁تاریکی	-9484
▁دستاورد	-9485
▁عذرخواهی	-9486
▁مسئولیتی	-9487
▁ایتالیایی	-9488
▁تیراندازی	-9489
بلی	-9490
خشد	-9491
اریخ	-9492
▁برکن	-9493
▁دمشق	-9494
▁رازی	-9495
▁قانع	-9496
▁چکار	-9497
▁امضاء	-9498
▁انصاف	-9499
▁تزیین	-9500
▁پارام	-9501
▁خرمشهر	-9502
▁داریوش	-9503
▁دبیرخانه	-9504
▁رشته‌های	-9505
▁سلول‌های	-9506
gle	-9507
اقض	-9508
سيم	-9509
ونزی	-9510
▁اشك	-9511
▁ذوق	-9512
▁ساس	-9513
▁سهر	-9514
منامه	-9515
▁زائد	-9516
▁گفتی	-9517
▁لطفاً	-9518
▁بالینی	-9519
▁سریعتر	-9520
▁پانزده	-9521
▁می‌کردم	-9522
PS	-9523
ore	-9524
ضيح	-9525
پزش	-9526
ight	-9527
گراد	-9528
یتور	-9529
▁دزد	-9530
▁فون	-9531
▁لقب	-9532
▁هنج	-9533
▁طلبی	-9534
▁واجد	-9535
▁وجوه	-9536
▁کاشی	-9537
▁گردو	-9538
▁بدلیل	-9539
▁روسای	-9540
▁ميدان	-9541
▁عمليات	-9542
▁آزمایشی	-9543
▁آو	-9544
▁ساد	-9545
▁سوق	-9546
▁تراش	-9547
▁تضاد	-9548
▁جوایز	-9549
▁دانیم	-9550
▁زنجیر	-9551
▁شهرام	-9552
▁بشناسید	-9553
▁دانستنی	-9554
كنم	-9555
ُون	-9556
‌بار	-9557
▁تپه	-9558
▁نگیر	-9559
▁هارو	-9560
▁کافه	-9561
▁شهرزاد	-9562
▁مبلمان	-9563
▁امكانات	-9564
▁خودروها	-9565
▁جایگزینی	-9566
▁بیماریهای	-9567
▁پروژه‌های	-9568
ازي	-9569
▁ایی	-9570
▁پاك	-9571
▁اوکر	-9572
▁جلال	-9573
▁لاغر	-9574
▁نكته	-9575
▁چيست	-9576
▁آنهایی	-9577
▁مگابایت	-9578
▁پيشنهاد	-9579
▁نامزدهای	-9580
bl	-9581
ِم	-9582
فال	-9583
ناع	-9584
,000	-9585
کامل	-9586
▁انض	-9587
▁پات	-9588
▁حائز	-9589
▁دیشب	-9590
▁قصاص	-9591
▁اعطای	-9592
▁اللّه	-9593
▁عصبان	-9594
▁فقدان	-9595
▁سربازی	-9596
▁نباشند	-9597
▁بپردازند	-9598
▁توش	-9599
▁مبه	-9600
▁اثرب	-9601
▁حیاط	-9602
▁مخزن	-9603
▁بازهم	-9604
▁خوانی	-9605
▁فهمید	-9606
▁آمريکا	-9607
▁مي‌دهد	-9608
▁رویدادهای	-9609
▁کاربردهای	-9610
▁تراکتورسازی	-9611
اگه	-9612
وشاپ	-9613
▁فتو	-9614
سترول	-9615
▁بقای	-9616
▁جواه	-9617
▁لاتین	-9618
▁نماییم	-9619
▁وزیران	-9620
▁پوشیدن	-9621
▁دستگاههای	-9622
▁سازماندهی	-9623
خلف	-9624
▁ژنو	-9625
▁بدهم	-9626
▁جاوا	-9627
▁حاكم	-9628
▁طرفه	-9629
▁فرعی	-9630
▁فریم	-9631
▁مسير	-9632
▁ملکه	-9633
▁امیری	-9634
▁حامیان	-9635
▁روبه‌رو	-9636
▁روشنفکر	-9637
▁گذاشتند	-9638
▁میلیاردی	-9639
هیچ	-9640
▁۹۸	-9641
▁تنظيم	-9642
▁......	-9643
▁خواستند	-9644
▁دهندگان	-9645
▁صرف‌نظر	-9646
▁پردازند	-9647
▁سازندگان	-9648
26	-9649
2]	-9650
روس	-9651
شویم	-9652
وتیک	-9653
‌پور	-9654
‌ترين	-9655
▁Copy	-9656
▁اسمش	-9657
▁سرنگ	-9658
▁مؤلف	-9659
▁مارک	-9660
▁بینیم	-9661
▁تحصيل	-9662
▁توضيح	-9663
▁مزایا	-9664
▁نهفته	-9665
▁ژنتیک	-9666
▁داشتنی	-9667
▁معاینه	-9668
▁استحکام	-9669
▁اطرافیان	-9670
▁قراردادی	-9671
27	-9672
ارج	-9673
سمه	-9674
واب	-9675
▁زيست	-9676
▁معاش	-9677
▁۱۳۸۸	-9678
▁داران	-9679
▁رسيده	-9680
▁ارمغان	-9681
▁جسمانی	-9682
ه‌السلام	-9683
▁آفریقای	-9684
▁آمریکای	-9685
▁روحانیت	-9686
▁جمع‌آوری	-9687
پوز	-9688
‌اس	-9689
▁IS	-9690
بسته	-9691
بورگ	-9692
دیده	-9693
▁زرا	-9694
▁کوک	-9695
▁اخير	-9696
▁خطای	-9697
▁نازک	-9698
▁پسری	-9699
▁شایعه	-9700
▁چطوری	-9701
▁گذاري	-9702
▁فوتسال	-9703
▁نوشتار	-9704
▁علاقمند	-9705
▁ابراهیمی	-9706
آل	-9707
ist	-9708
غیب	-9709
قادی	-9710
پایه	-9711
▁دلب	-9712
▁هرد	-9713
▁کی‌	-9714
▁اقلیت	-9715
▁بیکار	-9716
▁دردسر	-9717
▁روشنی	-9718
▁ساختاری	-9719
خيص	-9720
▁39	-9721
▁تعب	-9722
▁بکند	-9723
▁كاري	-9724
▁لشکر	-9725
1-	-9726
اك	-9727
رها	-9728
َلَ	-9729
▁ژل	-9730
▁اصن	-9731
▁جاه	-9732
▁صبا	-9733
کسیون	-9734
▁سپید	-9735
▁اذعان	-9736
▁مساوی	-9737
▁نیافت	-9738
▁دستیار	-9739
▁ناامید	-9740
▁نامزدی	-9741
▁بخواهند	-9742
▁محرمانه	-9743
▁می‌افتد	-9744
▁می‌دهیم	-9745
▁k	-9746
مود	-9747
پسند	-9748
▁راک	-9749
▁۱۵۰	-9750
ؤمنین	-9751
فرهنگ	-9752
کریپت	-9753
‌آمیز	-9754
▁برپا	-9755
▁والا	-9756
▁کشتن	-9757
‌انداز	-9758
▁تحسین	-9759
▁درصورت	-9760
▁میدانی	-9761
▁گیرنده	-9762
▁کتابهای	-9763
▁کشاورزان	-9764
▁دانشگاه‌های	-9765
زیت	-9766
▁چم	-9767
ايات	-9768
▁برز	-9769
▁تره	-9770
▁دیو	-9771
▁تیمش	-9772
▁لیبر	-9773
▁هاشم	-9774
شناخته	-9775
▁شهریه	-9776
▁شکلات	-9777
▁مانتو	-9778
▁نمایی	-9779
▁گذران	-9780
▁بیاموز	-9781
▁اعتراضی	-9782
▁گردآوری	-9783
▁۰۴	-9784
کبیر	-9785
▁تنف	-9786
▁فطر	-9787
▁وهم	-9788
▁انشا	-9789
▁تداب	-9790
▁پوشه	-9791
▁تعلیق	-9792
▁خصوصا	-9793
▁ضخامت	-9794
▁علایم	-9795
▁قطعاً	-9796
▁شایعات	-9797
▁عصبانی	-9798
▁زمستانی	-9799
▁کارآموزی	-9800
اکنون	-9801
▁ایدئ	-9802
▁میگذ	-9803
▁خیریه	-9804
▁مدنظر	-9805
▁علیرغم	-9806
▁نشریات	-9807
▁نوسانات	-9808
end	-9809
ژیک	-9810
یلت	-9811
▁اخر	-9812
▁ریه	-9813
▁سرس	-9814
▁واز	-9815
▁html	-9816
▁مقصر	-9817
▁نزول	-9818
▁یزدی	-9819
▁اسپرم	-9820
▁رسمیت	-9821
▁روانه	-9822
▁سناری	-9823
▁فراغت	-9824
▁جايگاه	-9825
▁باورهای	-9826
▁دوره‌های	-9827
▁دانشجويان	-9828
▁فروشندگان	-9829
▁%	-9830
فین	-9831
▁۳۶	-9832
شرکت	-9833
نتان	-9834
کرده	-9835
▁عضل	-9836
▁خودی	-9837
▁فوتب	-9838
▁قمری	-9839
▁برسیم	-9840
▁تحقیر	-9841
▁صداوس	-9842
▁متولی	-9843
▁مچ	-9844
حساب	-9845
▁خير	-9846
▁عدل	-9847
▁1000	-9848
▁آسيب	-9849
▁شیوع	-9850
▁فصلی	-9851
▁روايت	-9852
▁نشستن	-9853
▁یازده	-9854
▁بالقوه	-9855
▁بیایید	-9856
▁تحقيقات	-9857
▁پادشاهی	-9858
▁بکارگیری	-9859
ذا	-9860
ومد	-9861
▁سده	-9862
▁صلو	-9863
شناسي	-9864
▁اینم	-9865
▁تاجی	-9866
▁تخته	-9867
▁قدری	-9868
▁آبشار	-9869
▁تأثير	-9870
▁موعود	-9871
▁پارتی	-9872
▁آکادمی	-9873
▁مداخله	-9874
▁نوشیدن	-9875
lay	-9876
راض	-9877
کیف	-9878
لاوه	-9879
ه‌بر	-9880
▁ago	-9881
▁مِن	-9882
▁آشوب	-9883
▁سفری	-9884
▁لیلا	-9885
▁اكنون	-9886
▁عارضه	-9887
▁استعفا	-9888
▁شرکتها	-9889
▁معتقدم	-9890
▁نظرتون	-9891
▁برندهای	-9892
▁متخصصین	-9893
sh	-9894
ost	-9895
▁49	-9896
▁Ch	-9897
▁درك	-9898
▁قله	-9899
▁مات	-9900
▁موت	-9901
▁مکل	-9902
▁ویا	-9903
▁توهم	-9904
▁قومی	-9905
▁اموزش	-9906
▁ایوان	-9907
▁تطبیق	-9908
▁مثبتی	-9909
▁دبیرکل	-9910
▁محاکمه	-9911
▁دانستند	-9912
▁دیدگاهی	-9913
نوا	-9914
▁Ap	-9915
▁حف	-9916
▁یی	-9917
اطلا	-9918
▁روت	-9919
▁قلی	-9920
فروشی	-9921
▁محضر	-9922
▁انتها	-9923
▁اوليه	-9924
▁خوندن	-9925
▁راستش	-9926
▁شاگرد	-9927
▁منتقد	-9928
▁نظارتی	-9929
▁گذارند	-9930
آید	-9931
یافت	-9932
▁198	-9933
▁سول	-9934
▁فضل	-9935
گذاري	-9936
▁حيات	-9937
▁نسیم	-9938
▁والد	-9939
▁بسیجی	-9940
▁تعدیل	-9941
▁میگیره	-9942
▁نمیشود	-9943
▁الگوهای	-9944
‌ه	-9945
عبه	-9946
دلیل	-9947
شکده	-9948
▁دند	-9949
▁لین	-9950
▁بشار	-9951
▁بشکه	-9952
▁حسرت	-9953
▁سارا	-9954
▁احضار	-9955
▁رسيدن	-9956
▁هفتگی	-9957
▁دردناک	-9958
▁سخنران	-9959
▁استیضاح	-9960
▁فروردين	-9961
▁مبارزات	-9962
▁Copyright	-9963
____	-9964
▁زنم	-9965
تهران	-9966
▁رسما	-9967
▁ضمنا	-9968
▁ترانس	-9969
▁گوارش	-9970
▁دیوانه	-9971
▁فرزندش	-9972
▁مکالمه	-9973
▁مي‌شوند	-9974
▁میدانید	-9975
ax	-9976
▁۳۸	-9977
▁ازم	-9978
▁میو	-9979
▁رييس	-9980
▁صحيح	-9981
▁قایق	-9982
▁مودم	-9983
▁شجاعت	-9984
▁استودی	-9985
▁استیون	-9986
▁کارتون	-9987
▁مناسبات	-9988
▁پلاستیکی	-9989
/10	-9990
ian	-9991
▁6.	-9992
علوم	-9993
▁بدين	-9994
▁سجده	-9995
▁علوی	-9996
▁میگی	-9997
▁کاست	-9998
▁امانت	-9999
▁امنيت	-10000
▁بزرگر	-10001
▁سرهنگ	-10002
▁شستشو	-10003
▁معترض	-10004
▁پاسخی	-10005
▁رایزنی	-10006
▁سلیمان	-10007
▁سیاستم	-10008
▁میخوان	-10009
▁پرتغال	-10010
▁خوشبختی	-10011
▁می‌سازد	-10012
▁اسرائیلی	-10013
پد	-10014
اثر	-10015
باق	-10016
load	-10017
▁ابا	-10018
▁تير	-10019
▁خرس	-10020
▁تونم	-10021
▁معدل	-10022
▁کوین	-10023
▁افراط	-10024
▁شخصيت	-10025
▁پسورد	-10026
الص	-10027
▁۲٫	-10028
رماه	-10029
شیان	-10030
▁اير	-10031
▁ایز	-10032
oogle	-10033
▁دیکت	-10034
▁ناقص	-10035
▁اسطور	-10036
▁تجارب	-10037
▁داخلي	-10038
▁غذاها	-10039
▁مداحی	-10040
▁آفرینی	-10041
▁فرکانس	-10042
▁دامپزشکی	-10043
▁پارلمانی	-10044
▁پاسخ‌گویی	-10045
سار	-10046
روید	-10047
▁وصف	-10048
وریان	-10049
▁هراس	-10050
▁تحليل	-10051
▁دارین	-10052
▁منظورم	-10053
▁ناتوان	-10054
▁پرستار	-10055
▁کی‌روش	-10056
▁اوکراین	-10057
▁نظامیان	-10058
▁پیوندها	-10059
▁گزارشات	-10060
آورد	-10061
بدون	-10062
جانب	-10063
شاید	-10064
▁عزم	-10065
▁معط	-10066
▁وقف	-10067
فرادی	-10068
▁ساری	-10069
▁سوئی	-10070
▁مجزا	-10071
▁وصول	-10072
▁چینش	-10073
گزاران	-10074
▁آسایش	-10075
▁خزانه	-10076
▁دقيقه	-10077
▁زیاده	-10078
▁غیرمجاز	-10079
▁فیس‌بوک	-10080
پز	-10081
تیم	-10082
ّلام	-10083
▁شاي	-10084
▁بردم	-10085
▁جانش	-10086
▁نصیب	-10087
▁کباب	-10088
▁گارد	-10089
▁داريم	-10090
▁مسیری	-10091
▁کمونی	-10092
▁دانستن	-10093
▁رسیدیم	-10094
▁اضطراری	-10095
▁قربانیان	-10096
▁کرده‌ایم	-10097
▁آمریکایی‌ها	-10098
th	-10099
طح	-10100
ash	-10101
راط	-10102
له‌ی	-10103
یییی	-10104
▁هضم	-10105
▁وحش	-10106
زمینی	-10107
كاران	-10108
▁بانك	-10109
▁احراز	-10110
▁فروند	-10111
▁ندارن	-10112
▁ازجمله	-10113
▁بامداد	-10114
▁جامعه‌	-10115
▁کوچکتر	-10116
▁نخواهید	-10117
▁اعتقادات	-10118
َو	-10119
ليغ	-10120
يدم	-10121
▁Bl	-10122
▁اژ	-10123
گفته	-10124
▁کاز	-10125
گردند	-10126
▁دنده	-10127
▁عایق	-10128
▁کبیر	-10129
▁بیانی	-10130
▁توحید	-10131
▁عثمان	-10132
▁بيشتري	-10133
▁پیاده‌	-10134
ناکی	-10135
▁حدس	-10136
▁لبه	-10137
▁محو	-10138
▁منشی	-10139
▁هایم	-10140
▁هرکس	-10141
▁اعضاي	-10142
▁تشخيص	-10143
▁خارجي	-10144
▁علیهم	-10145
▁اعتدال	-10146
▁انصراف	-10147
▁خيابان	-10148
يى	-10149
نیز	-10150
راتی	-10151
▁Res	-10152
▁شکی	-10153
▁توقع	-10154
▁نخستين	-10155
▁فوق‌العاده	-10156
/5	-10157
ice	-10158
▁؟!	-10159
ممنون	-10160
پایان	-10161
▁آراء	-10162
▁بازن	-10163
▁تانک	-10164
▁ماهر	-10165
▁کرسی	-10166
▁اتریش	-10167
▁بخورد	-10168
▁براین	-10169
▁جنسیت	-10170
▁شوهرم	-10171
▁عمدتا	-10172
▁مجسمه	-10173
▁پیگرد	-10174
▁آفرینش	-10175
▁ارسالی	-10176
▁فصلنامه	-10177
▁سهامداران	-10178
ِر	-10179
▁آروم	-10180
▁برشم	-10181
▁خاکی	-10182
▁ربود	-10183
▁كليه	-10184
▁نرفت	-10185
▁وضوح	-10186
▁کوهن	-10187
▁رزمند	-10188
▁نوکیا	-10189
▁چکیده	-10190
▁کرامت	-10191
▁آنالیز	-10192
▁انحصار	-10193
▁جنایات	-10194
▁پرفروش	-10195
▁حسابرسی	-10196
▁ویژه‌ای	-10197
▁انتقالات	-10198
▁ایدئولوژی	-10199
أن	-10200
‌ش	-10201
دختر	-10202
▁الش	-10203
▁شوق	-10204
▁لوح	-10205
▁گرگ	-10206
▁1388	-10207
▁انصار	-10208
▁عروسک	-10209
▁متخلف	-10210
▁نخست‌	-10211
▁همدلی	-10212
▁عبارتی	-10213
▁همایون	-10214
▁رادیویی	-10215
▁نخواهیم	-10216
هنر	-10217
کاس	-10218
تنها	-10219
▁اتم	-10220
▁طری	-10221
▁هوی	-10222
▁مجرب	-10223
▁اومدم	-10224
▁كيفيت	-10225
▁سانسور	-10226
▁محصولی	-10227
▁فشارهای	-10228
▁کلسترول	-10229
45	-10230
ناس	-10231
ودن	-10232
وين	-10233
کود	-10234
کردنی	-10235
▁راند	-10236
▁عالي	-10237
▁لاین	-10238
▁صمیمی	-10239
▁میانی	-10240
▁پراید	-10241
▁کوروش	-10242
▁آنچنان	-10243
▁بخواند	-10244
▁خوانند	-10245
▁نظرتان	-10246
▁گوناگونی	-10247
ov	-10248
ox	-10249
▁فط	-10250
‌کار	-10251
‌آباد	-10252
▁مغذی	-10253
▁کنتر	-10254
▁برسید	-10255
▁عظیمی	-10256
▁فنجان	-10257
▁سرنشین	-10258
▁فانتزی	-10259
▁میدونی	-10260
▁بگذاریم	-10261
▁مکانیکی	-10262
▁امیرکبیر	-10263
4.	-10264
آخر	-10265
توس	-10266
ساب	-10267
▁صفا	-10268
▁طاه	-10269
▁عرص	-10270
▁نیس	-10271
▁ساکت	-10272
▁شهيد	-10273
▁وصیت	-10274
▁تبليغ	-10275
▁ذخایر	-10276
▁نماند	-10277
▁کاملی	-10278
▁هایتان	-10279
▁هیچگاه	-10280
▁پدیدار	-10281
▁ژنتیکی	-10282
ng	-10283
کاب	-10284
شاری	-10285
ضایتی	-10286
‌هايي	-10287
▁اشعه	-10288
▁پاکس	-10289
▁۲۰۱۲	-10290
▁اينها	-10291
▁جنجال	-10292
▁عاقبت	-10293
▁نشونه	-10294
▁پروسه	-10295
▁فتوشاپ	-10296
▁نیامده	-10297
▁پیغمبر	-10298
▁بزرگراه	-10299
▁پرداختن	-10300
▁ابوالفضل	-10301
▁می‌خواست	-10302
▁غض	-10303
کسون	-10304
▁ادا	-10305
▁ارگ	-10306
▁الق	-10307
▁رخت	-10308
▁کسر	-10309
▁دربر	-10310
▁غروب	-10311
▁اسکند	-10312
▁اصالت	-10313
▁قاسمی	-10314
▁چیزها	-10315
▁سایبری	-10316
▁بازنشسته	-10317
▁نوشته‌ها	-10318
IS	-10319
جنس	-10320
▁1)	-10321
ئینی	-10322
▁250	-10323
▁سقط	-10324
▁خسرو	-10325
▁مینی	-10326
▁یلدا	-10327
▁بشریت	-10328
▁تخمین	-10329
▁فرضیه	-10330
▁كساني	-10331
▁بخورید	-10332
▁کافیست	-10333
▁استادان	-10334
▁جابجایی	-10335
3]	-10336
درت	-10337
ريح	-10338
عون	-10339
▁تپ	-10340
▁۰۳	-10341
ستگي	-10342
عالی	-10343
▁(5)	-10344
دالله	-10345
ي‌شده	-10346
▁تونل	-10347
▁عروق	-10348
▁فاسد	-10349
▁دوستش	-10350
خانه‌ها	-10351
▁اشتباهی	-10352
كش	-10353
ظهر	-10354
وفی	-10355
▁کاس	-10356
▁خوشی	-10357
▁والم	-10358
▁استعف	-10359
▁تدارک	-10360
▁توابع	-10361
▁سانحه	-10362
▁نمایه	-10363
▁نمیده	-10364
▁هشتاد	-10365
▁مؤمنان	-10366
▁ناوگان	-10367
▁آرژانتین	-10368
▁ایستادگی	-10369
▁می‌نماید	-10370
▁آلومینیوم	-10371
گذر	-10372
▁اتو	-10373
▁ديه	-10374
▁مجر	-10375
▁هات	-10376
▁بدیم	-10377
▁دزدی	-10378
▁شعله	-10379
▁مبال	-10380
▁نارس	-10381
▁ناخواسته	-10382
▁پژوهشگاه	-10383
21	-10384
ff	-10385
مرغ	-10386
ناب	-10387
▁خیس	-10388
▁فست	-10389
▁نهج	-10390
▁حذفی	-10391
▁قریب	-10392
▁چرخش	-10393
▁شکستن	-10394
▁کاغذی	-10395
▁بخشنامه	-10396
6.	-10397
اهه	-10398
ضمن	-10399
فری	-10400
ولیک	-10401
کنیم	-10402
▁آسم	-10403
▁ضلع	-10404
▁میگ	-10405
▁چال	-10406
▁ذهنم	-10407
▁رسوم	-10408
▁شيعه	-10409
▁عزيز	-10410
▁عمان	-10411
طرفدار	-10412
▁رساله	-10413
▁مزاحم	-10414
▁خواندنی	-10415
io	-10416
ue	-10417
اسل	-10418
شدت	-10419
صیر	-10420
‌پذ	-10421
میزی	-10422
▁600	-10423
▁لغات	-10424
▁مواز	-10425
▁هاوک	-10426
▁تقسيم	-10427
▁ضربان	-10428
▁محكوم	-10429
▁ويژگي	-10430
▁پیکان	-10431
▁نهایتا	-10432
▁نمی‌توانند	-10433
نون	-10434
ونگ	-10435
▁حدي	-10436
▁شوی	-10437
▁مفس	-10438
▁پسرش	-10439
▁پیشه	-10440
▁باورن	-10441
▁بهشون	-10442
▁تامين	-10443
▁شوهرش	-10444
▁استثنا	-10445
▁بیانات	-10446
▁1395-04	-10447
▁بدنسازی	-10448
-1-	-10449
تام	-10450
کنید	-10451
گوید	-10452
▁ضای	-10453
▁پير	-10454
بردار	-10455
▁اصیل	-10456
▁تهوع	-10457
▁حماس	-10458
▁عواق	-10459
▁مهره	-10460
▁پاکی	-10461
▁پسرم	-10462
▁باشيم	-10463
▁دقیقی	-10464
▁رئیسی	-10465
▁ویران	-10466
▁انضباط	-10467
▁یونانی	-10468
خانه‌های	-10469
▁خندوانه	-10470
▁هالیوود	-10471
▁گروههای	-10472
مک	-10473
پنج	-10474
رائی	-10475
▁تکف	-10476
▁سوى	-10477
▁معض	-10478
نظامی	-10479
ویسان	-10480
‌هاست	-10481
▁توقی	-10482
▁سویی	-10483
▁فرشت	-10484
▁يابد	-10485
بازدید	-10486
▁اجبار	-10487
▁دلسوز	-10488
▁رحیمی	-10489
▁سوئیس	-10490
▁صرافی	-10491
▁وجدان	-10492
▁بالاست	-10493
▁روایتی	-10494
▁زنجانی	-10495
▁كشورهاي	-10496
جل	-10497
رغ	-10498
جند	-10499
▁(3	-10500
▁دیگ	-10501
▁الآن	-10502
▁جعلی	-10503
▁ایفای	-10504
▁دزفول	-10505
▁نساجی	-10506
▁نشوید	-10507
▁یکسال	-10508
▁درواقع	-10509
▁همگانی	-10510
▁اسکریپت	-10511
▁می‌آیند	-10512
▁دیجیتالی	-10513
▁برخورداری	-10514
1،	-10515
كيد	-10516
زیست	-10517
منام	-10518
▁قصر	-10519
▁جادو	-10520
▁وقتى	-10521
▁پخته	-10522
▁کثیف	-10523
▁اینچی	-10524
▁دیدیم	-10525
▁درآمده	-10526
▁نتواند	-10527
▁همانگونه	-10528
ملی	-10529
▁شج	-10530
▁كو	-10531
▁کُ	-10532
بانک	-10533
▁شون	-10534
▁بینم	-10535
▁دانا	-10536
▁جوراب	-10537
▁عمودی	-10538
▁تضمینی	-10539
▁زاهدان	-10540
ss	-10541
ْم	-10542
آهن	-10543
▁Ar	-10544
قدرت	-10545
وارد	-10546
▁Mar	-10547
▁بيت	-10548
▁مصی	-10549
ینوکس	-10550
▁توفیق	-10551
▁سريال	-10552
▁پوینت	-10553
▁می‌کشد	-10554
▁بالاتری	-10555
▁اساسنامه	-10556
ele	-10557
▁Sp	-10558
▁چل	-10559
▁and	-10560
▁صدی	-10561
▁آشتی	-10562
▁تبار	-10563
▁دوتا	-10564
▁کرای	-10565
▁اتباع	-10566
▁اعلان	-10567
▁نرمال	-10568
▁بیایند	-10569
▁توییتر	-10570
▁میتونی	-10571
▁نمیکنم	-10572
▁اعتقادی	-10573
▁بازیهای	-10574
▁سالیانه	-10575
▁رانندگان	-10576
۹۷	-10577
▁58	-10578
عليه	-10579
▁قبی	-10580
▁گله	-10581
▁دقيق	-10582
▁شديد	-10583
▁پیری	-10584
▁الیاف	-10585
▁بهتون	-10586
▁تنبیه	-10587
▁جغراف	-10588
▁فراری	-10589
▁مکزیک	-10590
▁تایلند	-10591
▁امیدواری	-10592
▁بندرعباس	-10593
آز	-10594
دف	-10595
جهت	-10596
پیر	-10597
۱۳۷	-10598
جاری	-10599
ریشی	-10600
▁شرف	-10601
▁ندا	-10602
فاعات	-10603
▁عاقل	-10604
▁مومن	-10605
▁کمیت	-10606
▁کهنه	-10607
▁admin	-10608
▁تصوير	-10609
▁دخترش	-10610
▁رسیدم	-10611
▁مذكور	-10612
▁مندان	-10613
▁موافقم	-10614
▁اندونزی	-10615
▁سایتهای	-10616
▁عادلانه	-10617
▁پاکسازی	-10618
▁اصطلاحات	-10619
▁بانکداری	-10620
ضي	-10621
ايی	-10622
وتو	-10623
خوام	-10624
كنان	-10625
لاغه	-10626
‌آور	-10627
▁ازت	-10628
▁قران	-10629
▁ناتو	-10630
▁داداش	-10631
▁معکوس	-10632
▁نهاده	-10633
▁کردین	-10634
▁پايگاه	-10635
▁دوستانی	-10636
▁محورهای	-10637
▁نمیتونم	-10638
▁هاوکینگ	-10639
▁فرصت‌های	-10640
93	-10641
نر	-10642
جیل	-10643
▁غي	-10644
▁گوس	-10645
اندوم	-10646
▁1389	-10647
▁اكثر	-10648
▁بلوک	-10649
▁واژن	-10650
▁کوفه	-10651
مجموعه	-10652
▁اعراب	-10653
▁تنفسی	-10654
▁معلول	-10655
▁میدون	-10656
▁پرینت	-10657
▁مديران	-10658
▁مقدمات	-10659
▁يكديگر	-10660
▁پولدار	-10661
▁انحصاری	-10662
▁رزمندگان	-10663
▁سازمانها	-10664
▁می‌نویسد	-10665
کوپ	-10666
▁۰۶	-10667
▁اقا	-10668
▁ابوب	-10669
▁تقوا	-10670
▁موسي	-10671
▁ندهد	-10672
پرداخت	-10673
▁بلندی	-10674
▁داريد	-10675
▁دیدند	-10676
▁شمرده	-10677
▁برانگی	-10678
▁عکسهای	-10679
▁لینوکس	-10680
▁1395-05-0	-10681
▁دندانپزشکی	-10682
ug	-10683
روي	-10684
‌گر	-10685
يستي	-10686
گراف	-10687
▁سیره	-10688
▁متاب	-10689
▁یهود	-10690
▁اصولا	-10691
▁بخشید	-10692
▁متمای	-10693
▁مهدوی	-10694
▁میرسد	-10695
▁گزینش	-10696
▁فریدون	-10697
▁هرکدام	-10698
▁پشتوانه	-10699
▁بانک‌های	-10700
▁نارضایتی	-10701
▁ایثارگران	-10702
▁برخوردارند	-10703
▁خودروسازان	-10704
/4	-10705
::	-10706
ell	-10707
▁قف	-10708
ریفی	-10709
▁اتص	-10710
▁حشر	-10711
▁ربی	-10712
▁صدد	-10713
▁طبع	-10714
▁رقمی	-10715
▁نیکو	-10716
▁کنيم	-10717
▁تعارض	-10718
▁ملایم	-10719
▁نیمه‌	-10720
▁وظيفه	-10721
▁تلگرامی	-10722
▁فرآینده	-10723
▁نمی‌دهد	-10724
▁وحشتناک	-10725
▁خودروسازی	-10726
طف	-10727
ليم	-10728
کتی	-10729
▁(5	-10730
▁7.	-10731
▁غز	-10732
▁ونز	-10733
▁اونو	-10734
▁ايست	-10735
▁ترشح	-10736
▁شخصي	-10737
▁تصويب	-10738
▁جمشید	-10739
▁سالاد	-10740
▁مصیبت	-10741
▁پیشتر	-10742
▁بیننده	-10743
▁ثانویه	-10744
▁توریستی	-10745
▁پرطرفدار	-10746
▁باورنکردنی	-10747
۹۶	-10748
ite	-10749
▁فه	-10750
▁قاط	-10751
▁بهاره	-10752
▁تأمين	-10753
▁همسای	-10754
▁دشواری	-10755
▁سؤالات	-10756
▁لهستان	-10757
▁نسبتاً	-10758
▁اصفهانی	-10759
▁تابستانی	-10760
▁مجموعه‌ای	-10761
خار	-10762
خوار	-10763
▁PDF	-10764
▁وبا	-10765
▁۱۹۶	-10766
یداشت	-10767
▁روال	-10768
▁آلرژی	-10769
▁اساسي	-10770
▁بانوی	-10771
▁شاهین	-10772
▁شناسه	-10773
▁امامان	-10774
▁دکترای	-10775
▁مهمانی	-10776
▁عصبانیت	-10777
iv	-10778
٫ظ	-10779
راي	-10780
کیم	-10781
ابید	-10782
شهدا	-10783
مداد	-10784
▁جوک	-10785
▁عجب	-10786
▁وحی	-10787
▁يكى	-10788
▁امري	-10789
▁دانی	-10790
▁نمیر	-10791
▁بخونم	-10792
▁تاجیک	-10793
▁شدیدی	-10794
▁فدرال	-10795
▁هیچکس	-10796
▁العظمی	-10797
▁متوالی	-10798
▁میهمان	-10799
▁بازیافت	-10800
▁بیاورید	-10801
▁ستارگان	-10802
▁می‌گرفت	-10803
َت	-10804
وندی	-10805
▁ولو	-10806
▁غرفه	-10807
▁قوای	-10808
▁جهادی	-10809
▁مشروع	-10810
▁نابار	-10811
▁میخواهید	-10812
▁پیامدهای	-10813
per	-10814
بون	-10815
‌ون	-10816
▁رهن	-10817
▁هریک	-10818
▁کارم	-10819
▁بزودی	-10820
▁تسریع	-10821
▁فامیل	-10822
▁عضلانی	-10823
▁مبارکه	-10824
▁ارتفاعات	-10825
ES	-10826
موس	-10827
نیه	-10828
▁IP	-10829
استه	-10830
ستات	-10831
▁مفا	-10832
ـــــ	-10833
▁اورد	-10834
▁رویا	-10835
▁چاقو	-10836
الیستی	-10837
شناختی	-10838
▁گرگان	-10839
▁پرسیدم	-10840
▁برسانند	-10841
▁کاراکتر	-10842
▁ماندگاری	-10843
▁اصلاح‌طلبان	-10844
اغ	-10845
ارگ	-10846
وطی	-10847
پات	-10848
غانی	-10849
▁خوي	-10850
▁کنج	-10851
▁گود	-10852
▁اثرگ	-10853
▁اجزا	-10854
▁الهى	-10855
▁انبا	-10856
▁خرما	-10857
▁دیار	-10858
▁گرمی	-10859
▁اساسا	-10860
▁جنازه	-10861
▁دوستت	-10862
▁رامین	-10863
▁ماشين	-10864
▁وارده	-10865
▁انسجام	-10866
▁بیداری	-10867
▁توانيد	-10868
▁مخروطی	-10869
▁هفتمین	-10870
▁استعمال	-10871
▁سالمندان	-10872
▁هواپیماهای	-10873
▁آث	-10874
کارم	-10875
‌هاى	-10876
▁بذر	-10877
▁شمع	-10878
▁نفی	-10879
▁سعدی	-10880
▁صدمه	-10881
‌دهنده	-10882
▁زنانی	-10883
▁منحرف	-10884
▁پیکسل	-10885
وانسیون	-10886
▁باتوجه	-10887
▁پروتکل	-10888
▁چشمگیر	-10889
▁یافتند	-10890
▁مسوولان	-10891
▁کارگیری	-10892
▁یهودیان	-10893
▁خانواده‌	-10894
▁ورشکستگی	-10895
▁فرمانداری	-10896
ook	-10897
اته	-10898
چشمه	-10899
▁نکت	-10900
▁چه‌	-10901
▁اکتش	-10902
▁برسه	-10903
▁خاتم	-10904
▁خالق	-10905
▁عینی	-10906
▁۲۰۱۱	-10907
▁اسارت	-10908
▁بهروز	-10909
▁مشکوک	-10910
▁برادرش	-10911
▁بسازید	-10912
▁ماشینی	-10913
اسط	-10914
▁Sh	-10915
▁في	-10916
▁نزن	-10917
▁شکوف	-10918
▁قرون	-10919
▁نشدم	-10920
▁کمکم	-10921
▁مایکل	-10922
▁آذرماه	-10923
▁تحمیلی	-10924
▁دريايي	-10925
▁سلطنتی	-10926
▁نهادها	-10927
▁گذراندن	-10928
▁صداوسیما	-10929
64	-10930
پین	-10931
کدام	-10932
▁ریت	-10933
▁فود	-10934
▁۱۲۸	-10935
▁جاود	-10936
▁میسر	-10937
▁نظير	-10938
▁اقساط	-10939
▁بصیرت	-10940
▁زنبور	-10941
▁ممتاز	-10942
▁مونده	-10943
▁میرود	-10944
▁پرخاش	-10945
▁الزامات	-10946
▁محمدعلی	-10947
▁بروزرسانی	-10948
▁می‌خواهیم	-10949
.‏	-10950
int	-10951
مدل	-10952
ومن	-10953
▁8-	-10954
ولتی	-10955
▁حصر	-10956
▁ستی	-10957
▁شکو	-10958
▁ورم	-10959
هنگام	-10960
▁تونه	-10961
▁جرات	-10962
▁غارت	-10963
▁فراه	-10964
▁فیلی	-10965
▁باریک	-10966
▁مضمون	-10967
▁رویترز	-10968
▁پورتال	-10969
▁اتهامات	-10970
▁قالیباف	-10971
▁محکومیت	-10972
▁فراکسیون	-10973
88	-10974
▁(138	-10975
▁(139	-10976
▁Comm	-10977
▁بکنم	-10978
▁سريع	-10979
▁مقاي	-10980
▁مهمه	-10981
▁ترغیب	-10982
▁درایو	-10983
▁دولتي	-10984
▁سایتی	-10985
▁صلوات	-10986
▁معدود	-10987
▁نجومی	-10988
▁ونزوئ	-10989
▁آمريكا	-10990
▁بنویسم	-10991
▁شهیدان	-10992
▁بازنگری	-10993
▁می‌زنند	-10994
▁نیازمندیم	-10995
92	-10996
ذف	-10997
ْر	-10998
ass	-10999
سید	-11000
▁۰۵	-11001
فراز	-11002
وشان	-11003
▁سيد	-11004
▁شوک	-11005
▁فکی	-11006
▁کیا	-11007
ارتان	-11008
تاریخ	-11009
▁2000	-11010
▁استب	-11011
▁ببين	-11012
▁عجله	-11013
▁۱۰۰۰	-11014
خوردگی	-11015
▁آزاده	-11016
▁اینست	-11017
▁حاتمی	-11018
▁پروتز	-11019
▁اسرایی	-11020
▁همشهری	-11021
▁گوسفند	-11022
▁دموکرات	-11023
!؟	-11024
ئين	-11025
▁یب	-11026
▁معذ	-11027
ورتون	-11028
▁مسال	-11029
▁مکات	-11030
▁نفهم	-11031
▁اقبال	-11032
▁باشین	-11033
▁نبودم	-11034
▁پایبند	-11035
▁عزیزمان	-11036
▁می‌ماند	-11037
▁می‌گویم	-11038
▁پژوهشگر	-11039
MS	-11040
مخ	-11041
ازون	-11042
لازم	-11043
▁حول	-11044
▁كال	-11045
▁معا	-11046
▁هاف	-11047
گزاري	-11048
▁سندی	-11049
برنامه	-11050
‌انگیز	-11051
▁آورید	-11052
▁ازمون	-11053
▁تهویه	-11054
▁توقیف	-11055
▁داوود	-11056
▁مرخصی	-11057
▁انلاین	-11058
▁بردارد	-11059
▁به‌کار	-11060
▁انفرادی	-11061
▁پردازیم	-11062
▁چشمگیری	-11063
▁کارفرما	-11064
▁همان‌طور	-11065
▁پیامبران	-11066
”،	-11067
شوی	-11068
طرح	-11069
▁حاد	-11070
▁رجب	-11071
استان	-11072
انداز	-11073
▁بصری	-11074
▁حبیب	-11075
▁لیبی	-11076
▁کویر	-11077
▁جاهای	-11078
▁حالتی	-11079
▁عواقب	-11080
▁پائین	-11081
▁کودتا	-11082
▁گرمای	-11083
فروشگاه	-11084
▁رحمانی	-11085
▁السّلام	-11086
▁آسیب‌های	-11087
ER	-11088
eg	-11089
اتح	-11090
ُونَ	-11091
▁نای	-11092
ایشان	-11093
دانان	-11094
‌‌های	-11095
▁احمق	-11096
▁غیرت	-11097
▁تگهای	-11098
▁رواني	-11099
▁معقول	-11100
▁واکسن	-11101
▁‌ماده	-11102
▁آخوندی	-11103
▁مصوبات	-11104
▁موفقيت	-11105
▁اردوگاه	-11106
▁می‌خواهم	-11107
▁سازمانهای	-11108
67	-11109
راء	-11110
عال	-11111
▁تط	-11112
بادی	-11113
کارا	-11114
▁تشک	-11115
▁آوار	-11116
▁الجز	-11117
▁الهي	-11118
▁الکس	-11119
▁تابش	-11120
▁تعال	-11121
▁كلمه	-11122
▁لعنت	-11123
▁کاوش	-11124
▁اشتیا	-11125
▁تجسمی	-11126
▁تهاجم	-11127
▁دادید	-11128
▁متشکر	-11129
▁محوری	-11130
▁مشخصه	-11131
▁دیواره	-11132
▁معناست	-11133
▁ميباشد	-11134
▁نویسند	-11135
▁صادراتی	-11136
▁کنوانسیون	-11137
راً	-11138
ایشی	-11139
همین	-11140
‌‌‌‌	-11141
▁128	-11142
▁134	-11143
▁تكن	-11144
▁شرو	-11145
▁هوس	-11146
▁بیعت	-11147
▁تفنگ	-11148
▁جامد	-11149
▁فقهی	-11150
▁کاظم	-11151
▁امیدی	-11152
▁بنادر	-11153
▁تالاب	-11154
▁دهقان	-11155
▁مردها	-11156
دانشگاه	-11157
▁قرارگاه	-11158
▁مسئوليت	-11159
▁بپردازید	-11160
▁علیه‌السلام	-11161
ْل	-11162
ank	-11163
اقل	-11164
لوس	-11165
آنها	-11166
داند	-11167
ظران	-11168
▁اتی	-11169
▁رزم	-11170
امروز	-11171
انتری	-11172
بایست	-11173
▁اردن	-11174
▁اکشن	-11175
▁تاسف	-11176
▁قدمت	-11177
▁لبنی	-11178
▁هوشی	-11179
▁اخلاص	-11180
▁بینند	-11181
▁غریبه	-11182
▁ناخود	-11183
▁پذيرش	-11184
▁گردهم	-11185
ownload	-11186
▁بیرجند	-11187
▁زندگیم	-11188
▁پارسال	-11189
▁گرسنگی	-11190
▁مهربانی	-11191
▁می‌گذرد	-11192
▁نیازمندی	-11193
▁والمسلمین	-11194
ure	-11195
پشت	-11196
▁خص	-11197
▁ریل	-11198
▁2011	-11199
▁نوید	-11200
▁اشیاء	-11201
▁مساعد	-11202
▁ژنرال	-11203
▁بدنبال	-11204
▁مرگبار	-11205
▁نشانگر	-11206
▁پيشرفت	-11207
▁استعفای	-11208
▁مأموران	-11209
▁نمی‌کرد	-11210
▁روحانیون	-11211
▁ناشناخته	-11212
انى	-11213
▁00	-11214
▁۷۵	-11215
ونده	-11216
▁منق	-11217
▁نه‌	-11218
ابهار	-11219
▁عمدت	-11220
▁مهیا	-11221
▁چشمی	-11222
راتوری	-11223
وردهای	-11224
▁تفسير	-11225
▁دلالت	-11226
▁نویسد	-11227
▁کلامی	-11228
▁آموخته	-11229
▁برانگیز	-11230
▁می‌شوید	-11231
▁حزب‌الله	-11232
تق	-11233
تک	-11234
وتن	-11235
▁IR	-11236
▁یر	-11237
▁امد	-11238
جینال	-11239
▁امير	-11240
▁عقلی	-11241
▁کویت	-11242
▁اجماع	-11243
▁خرابی	-11244
▁ناخوش	-11245
▁وفادار	-11246
▁اظهارنظر	-11247
▁المسلمین	-11248
▁هندوستان	-11249
af	-11250
دس	-11251
َی	-11252
رگس	-11253
‌تی	-11254
▁43	-11255
▁آنا	-11256
▁طار	-11257
▁کسان	-11258
▁ایمپل	-11259
▁توکلی	-11260
▁مانور	-11261
▁پیگیر	-11262
میلیارد	-11263
▁سفارشی	-11264
▁مقايسه	-11265
▁گردشگر	-11266
▁جلوگيري	-11267
▁فراموشی	-11268
▁مأموریت	-11269
▁تماشاگران	-11270
0)	-11271
65	-11272
بورد	-11273
▁ابد	-11274
▁اقل	-11275
▁ايد	-11276
▁لیز	-11277
▁ادرس	-11278
▁برنز	-11279
▁مواظ	-11280
▁مجامع	-11281
▁مرتفع	-11282
▁نهايت	-11283
▁هستيم	-11284
▁برپایی	-11285
▁دقیقاً	-11286
▁سرطانی	-11287
▁مبادله	-11288
انم	-11289
ضعف	-11290
وجه	-11291
▁()	-11292
▁بُ	-11293
ربند	-11294
فتگی	-11295
ممکن	-11296
کسوت	-11297
▁(6)	-11298
كردند	-11299
▁بخون	-11300
▁سخته	-11301
▁غیرد	-11302
▁ممان	-11303
▁کجای	-11304
▁تسکین	-11305
▁خوابی	-11306
▁زودرس	-11307
▁عصاره	-11308
▁كشاور	-11309
▁مستعد	-11310
نامه‌ها	-11311
▁متمایز	-11312
▁مشروطه	-11313
▁پیشبرد	-11314
كب	-11315
تره	-11316
وعه	-11317
…..	-11318
سرای	-11319
كنيم	-11320
▁iOS	-11321
▁الحس	-11322
▁حیرت	-11323
▁دیدی	-11324
▁شويد	-11325
▁طلاب	-11326
▁ناشي	-11327
▁1381.	-11328
▁رئیسه	-11329
▁رزومه	-11330
▁صدایی	-11331
▁مگاپی	-11332
▁پرویز	-11333
▁معضلات	-11334
▁کلیسای	-11335
▁دانشیار	-11336
▁شاهزاده	-11337
▁ونزوئلا	-11338
▁فیلمبرداری	-11339
▁اندازه‌گیری	-11340
يی	-11341
-20	-11342
▁۵۷	-11343
ارند	-11344
روژن	-11345
ورید	-11346
▁ازبک	-11347
▁جانی	-11348
▁نفرت	-11349
▁نیما	-11350
▁آهسته	-11351
▁بارون	-11352
▁بریده	-11353
▁سالار	-11354
▁عموما	-11355
▁مخلوق	-11356
▁معایب	-11357
▁نفرات	-11358
▁گمشده	-11359
▁نگهدار	-11360
▁کالیفر	-11361
▁استبداد	-11362
▁افزارها	-11363
▁اینطوری	-11364
▁خوابگاه	-11365
▁پایبندی	-11366
77	-11367
/04	-11368
▁De	-11369
افقی	-11370
تماس	-11371
ستیم	-11372
لطفا	-11373
▁تقی	-11374
▁تمس	-11375
انجام	-11376
ومنین	-11377
▁براد	-11378
▁دادی	-11379
▁فونت	-11380
▁مقیم	-11381
▁ميشه	-11382
▁ناجا	-11383
▁باحال	-11384
▁تصحیح	-11385
▁منطبق	-11386
▁کدهای	-11387
▁گوشتی	-11388
▁لاستیک	-11389
▁ایمپلنت	-11390
▁برسانید	-11391
▁وفاداری	-11392
▁کوچکترین	-11393
ie	-11394
ome	-11395
دون	-11396
ستد	-11397
‌گیر	-11398
▁تیک	-11399
▁دیه	-11400
▁حالم	-11401
▁تعاری	-11402
▁سوخته	-11403
▁سينما	-11404
▁سیزده	-11405
▁فولادی	-11406
▁متجاوز	-11407
▁کوچولو	-11408
▁سرپرستی	-11409
▁علیزاده	-11410
▁نامه‌ای	-11411
▁استثنایی	-11412
خدم	-11413
چاره	-11414
▁Cre	-11415
▁تیغ	-11416
▁چاو	-11417
▁تندر	-11418
▁Google	-11419
▁تدابیر	-11420
▁خوردگی	-11421
▁عمدتاً	-11422
▁چنانکه	-11423
▁آرامگاه	-11424
▁ماهیانه	-11425
▁می‌شدند	-11426
▁استان‌ها	-11427
طب	-11428
ary	-11429
نمی	-11430
سايت	-11431
کشور	-11432
▁فني	-11433
▁نقط	-11434
ختگان	-11435
نهایت	-11436
يزيون	-11437
▁افقی	-11438
▁بخشش	-11439
▁خشکس	-11440
▁عددی	-11441
▁ارکان	-11442
▁دخترم	-11443
▁عسکری	-11444
▁مشتاق	-11445
▁بیابان	-11446
▁حمل‌ون	-11447
▁دوگانه	-11448
▁وضعیتی	-11449
▁بارندگی	-11450
▁محتویات	-11451
▁ورزشکار	-11452
29	-11453
AR	-11454
ْن	-11455
اول	-11456
باني	-11457
▁800	-11458
▁پيچ	-11459
▁فستی	-11460
▁بنشین	-11461
▁رخداد	-11462
▁معطوف	-11463
▁توافقی	-11464
▁چابهار	-11465
▁افتخاری	-11466
▁زمینه‌های	-11467
▁بیمارستانی	-11468
‌ف	-11469
ail	-11470
ame	-11471
هال	-11472
هان	-11473
▁08	-11474
▁عفو	-11475
▁خلقت	-11476
▁مشرق	-11477
▁مغنا	-11478
▁واسط	-11479
▁اینكه	-11480
▁زمانه	-11481
▁سهولت	-11482
▁قراره	-11483
--------	-11484
▁ایرانسل	-11485
▁تهدیدات	-11486
▁کلانتری	-11487
▁دیپلماتیک	-11488
كات	-11489
ماق	-11490
نیک	-11491
▁وك	-11492
▁شیش	-11493
▁وکل	-11494
انويه	-11495
▁Word	-11496
▁دونه	-11497
▁رحیم	-11498
▁شورش	-11499
▁احكام	-11500
▁برلین	-11501
▁حیدری	-11502
▁واحدی	-11503
▁ارگانی	-11504
▁ریختگی	-11505
▁اصولگرایان	-11506
erv	-11507
قلی	-11508
▁st	-11509
آمیز	-11510
▁جمل	-11511
▁شاء	-11512
▁قرم	-11513
▁قیا	-11514
▁پس‌	-11515
▁کسى	-11516
لاگین	-11517
نوشته	-11518
▁شدیدا	-11519
▁صنايع	-11520
▁منازل	-11521
▁میزنم	-11522
▁ناهار	-11523
▁هواوی	-11524
▁امتداد	-11525
▁بینایی	-11526
▁تابناک	-11527
▁جایگاهی	-11528
▁دیپلمات	-11529
▁کاپیتان	-11530
َس	-11531
arg	-11532
امتی	-11533
▁130	-11534
▁pdf	-11535
▁شرب	-11536
شماره	-11537
▁باقي	-11538
▁بهنام	-11539
▁تبعید	-11540
▁تحریف	-11541
▁تناقض	-11542
▁سلولی	-11543
▁مروری	-11544
▁نظافت	-11545
▁سرچشمه	-11546
▁ولایتی	-11547
▁جواهرات	-11548
▁خوشحالی	-11549
▁غذاخوری	-11550
▁فروپاشی	-11551
▁گزارش‌ها	-11552
▁دیدگاه‌های	-11553
4]	-11554
lish	-11555
وارم	-11556
▁كشت	-11557
▁اکسپ	-11558
▁ذاتی	-11559
▁علی‌	-11560
▁فايل	-11561
▁معال	-11562
▁ملکی	-11563
▁پانل	-11564
▁پشیم	-11565
▁کاره	-11566
▁باقری	-11567
▁جمعيت	-11568
▁حواشی	-11569
▁میداد	-11570
▁اشتیاق	-11571
▁به‌روز	-11572
▁قابليت	-11573
▁ناخالص	-11574
▁استعمار	-11575
▁خاکستری	-11576
▁نيروهاي	-11577
▁چهره‌های	-11578
▁امیرالمؤمنین	-11579
▁ریاست‌جمهوری	-11580
َق	-11581
۸۰	-11582
▁54	-11583
▁تي	-11584
مادی	-11585
ورزی	-11586
▁بگی	-11587
▁غسل	-11588
▁مزه	-11589
▁توسع	-11590
▁قزاق	-11591
▁کمان	-11592
▁اسکان	-11593
▁تقابل	-11594
▁سهراب	-11595
▁کشورش	-11596
▁یبوست	-11597
▁بخشیدن	-11598
▁خسارات	-11599
▁میخوای	-11600
▁گرديده	-11601
▁خشکسالی	-11602
▁روزنامه‌نگ	-11603
!/	-11604
آی	-11605
▁فد	-11606
خاطر	-11607
نسخه	-11608
▁700	-11609
▁اکو	-11610
▁آمدم	-11611
▁ندرت	-11612
▁پسته	-11613
یمانده	-11614
▁مبلغی	-11615
▁ناهنج	-11616
▁پزشكي	-11617
▁پوشان	-11618
▁گمنام	-11619
▁دستمال	-11620
▁نوشابه	-11621
▁پیشکسوت	-11622
▁افتتاحیه	-11623
▁زیرزمینی	-11624
▁نامگذاری	-11625
▁استعدادهای	-11626
▁بازدیدکنندگان	-11627
((	-11628
nt	-11629
۹۰	-11630
▁84	-11631
▁on	-11632
▁۳۳	-11633
▁رکن	-11634
▁سعي	-11635
کیفیت	-11636
▁خوشه	-11637
▁روکش	-11638
▁شيوه	-11639
▁میتر	-11640
▁دوبار	-11641
▁موقعی	-11642
▁پرتال	-11643
▁پیشرو	-11644
▁گيرند	-11645
▁اللَّه	-11646
▁سودمند	-11647
▁هیچوقت	-11648
▁فستیوال	-11649
▁تلويزيون	-11650
▁جغرافیای	-11651
▁حمل‌ونقل	-11652
▁خانواده‌ها	-11653
ne	-11654
صاف	-11655
ژوه	-11656
▁۵۵	-11657
▁۹۱	-11658
قیقی	-11659
كنيد	-11660
مثلا	-11661
مردم	-11662
چیان	-11663
▁كمي	-11664
▁پوس	-11665
▁۶۰۰	-11666
▁استم	-11667
▁تایمز	-11668
▁زدایی	-11669
▁شمارش	-11670
▁فیروز	-11671
▁قبیله	-11672
▁نرفته	-11673
▁همانا	-11674
▁پرستی	-11675
ه‌کننده	-11676
▁ممانعت	-11677
▁هشتمین	-11678
▁خوابیدن	-11679
▁مستقیما	-11680
▁نداشتیم	-11681
▁هم‌اکنون	-11682
▁شماره‌های	-11683
AN	-11684
عظ	-11685
ودي	-11686
▁PC	-11687
جواد	-11688
دوست	-11689
▁تشیع	-11690
▁نرگس	-11691
▁گاهي	-11692
انوسیه	-11693
▁تبعات	-11694
▁کناره	-11695
▁اهمیتی	-11696
▁شهریار	-11697
▁فناوري	-11698
▁نیازها	-11699
▁پنالتی	-11700
▁می‌شناس	-11701
▁ویدیویی	-11702
▁باقیمانده	-11703
▁نمايندگان	-11704
.0	-11705
/11	-11706
‌ست	-11707
▁۶۵	-11708
ریبی	-11709
‌گری	-11710
▁جعل	-11711
▁عاج	-11712
▁قوچ	-11713
▁نگو	-11714
▁کاه	-11715
▁سیار	-11716
▁پرور	-11717
اسلاید	-11718
▁بطوری	-11719
▁بگيرد	-11720
▁درنظر	-11721
▁ریختن	-11722
▁سیمای	-11723
▁کافیه	-11724
▁خاشقجی	-11725
▁سرشناس	-11726
▁مجدداً	-11727
▁موقعيت	-11728
▁نيستند	-11729
▁ساندویچ	-11730
▁مانیتور	-11731
▁دارندگان	-11732
▁نشانه‌های	-11733
ry	-11734
اکی	-11735
سرا	-11736
فات	-11737
▁67	-11738
دولت	-11739
وئیه	-11740
▁جاى	-11741
▁مشی	-11742
▁هیل	-11743
▁آلای	-11744
▁الرح	-11745
▁سرکه	-11746
▁فاصل	-11747
▁مصون	-11748
▁پیرو	-11749
▁کاسه	-11750
▁گردی	-11751
▁حالات	-11752
▁حدودا	-11753
▁منعکس	-11754
▁وجودی	-11755
▁کاظمی	-11756
▁بازدهی	-11757
▁دگرگون	-11758
▁شبستان	-11759
▁انتقادی	-11760
▁قیمت‌ها	-11761
▁اعتراض‌ها	-11762
▁علاقمندان	-11763
▁پالایشگاه	-11764
▁گرامیداشت	-11765
▁بازبینی‌شده	-11766
كو	-11767
ace	-11768
net	-11769
سیا	-11770
نگه	-11771
▁01	-11772
▁87	-11773
اباد	-11774
ولید	-11775
کتان	-11776
▁بزنه	-11777
▁مکلف	-11778
▁هردو	-11779
▁کارا	-11780
▁آزادي	-11781
▁اواسط	-11782
▁برروی	-11783
▁بی‌بی	-11784
▁خصوصي	-11785
▁رفاهی	-11786
▁ملاحظ	-11787
▁پيروز	-11788
▁سانتیم	-11789
▁معنایی	-11790
▁آمارهای	-11791
▁صادقانه	-11792
▁فرشتگان	-11793
▁پروازهای	-11794
▁تولیدکننده	-11795
▁نمی‌توانیم	-11796
IN	-11797
sp	-11798
گد	-11799
/12	-11800
ber	-11801
وتا	-11802
▁56	-11803
▁چي	-11804
کشید	-11805
▁خمس	-11806
▁مدر	-11807
ached	-11808
سیستم	-11809
▁بسکت	-11810
▁بگرد	-11811
▁فردي	-11812
▁قفسه	-11813
خواستی	-11814
▁المان	-11815
▁سرتاسر	-11816
▁شناسان	-11817
▁قاعدگی	-11818
▁مناقصه	-11819
▁ولیعصر	-11820
▁پلتفرم	-11821
▁یادمان	-11822
▁ریاضیات	-11823
▁موضوعاتی	-11824
▁ویژگیهای	-11825
/1	-11826
ust	-11827
حرم	-11828
راش	-11829
▁>>	-11830
▁Ex	-11831
▁۳٫	-11832
▁۴۷	-11833
شمند	-11834
▁آيت	-11835
▁بغض	-11836
▁شكست	-11837
▁صفوی	-11838
▁بازگو	-11839
▁کلیسا	-11840
▁بنیامین	-11841
▁بیاورند	-11842
▁مطالعاتی	-11843
▁پژوهش‌های	-11844
)؛	-11845
زیم	-11846
واش	-11847
▁مژ	-11848
▁بدا	-11849
پرداز	-11850
▁افسر	-11851
▁انار	-11852
▁بانو	-11853
▁تقري	-11854
▁تنیس	-11855
▁رانت	-11856
▁کسری	-11857
▁تونید	-11858
▁شایان	-11859
▁فرزاد	-11860
▁جدیدترن	-11861
▁خلاقانه	-11862
▁مستندات	-11863
▁مسیرهای	-11864
▁نامشروع	-11865
▁می‌دانید	-11866
ons	-11867
▁re	-11868
قانی	-11869
نیان	-11870
‌متر	-11871
▁غدد	-11872
▁کفر	-11873
▁توئی	-11874
▁توام	-11875
▁حکمی	-11876
▁فنون	-11877
▁همهٔ	-11878
▁پنبه	-11879
▁کعبه	-11880
▁استیل	-11881
▁اشراف	-11882
▁المپی	-11883
▁دهانه	-11884
▁مکارم	-11885
▁بخشهای	-11886
▁رویایی	-11887
▁سالیان	-11888
▁شرمنده	-11889
▁بردارید	-11890
▁شوراهای	-11891
▁عکس‌های	-11892
▁پیچیدگی	-11893
▁می‌بینید	-11894
ek	-11895
▁سیف	-11896
وسازی	-11897
▁1386	-11898
▁ترمز	-11899
▁خادم	-11900
▁مریض	-11901
▁میگر	-11902
توانند	-11903
▁ادراک	-11904
▁ارباب	-11905
▁بهایی	-11906
▁رهبري	-11907
▁روسری	-11908
▁مشترك	-11909
▁منشور	-11910
▁منفعت	-11911
▁تاريخي	-11912
▁خوبتون	-11913
▁هیجانی	-11914
▁داده‌های	-11915
SB	-11916
VD	-11917
حص	-11918
جمی	-11919
رافت	-11920
ردام	-11921
نانی	-11922
▁لحن	-11923
▁لزو	-11924
‌رایت	-11925
▁تریب	-11926
▁دومی	-11927
▁شربت	-11928
▁عیار	-11929
▁مبهم	-11930
▁نقاش	-11931
▁چيزى	-11932
Cached	-11933
▁رياست	-11934
▁ضربات	-11935
▁هرکسی	-11936
▁کفایت	-11937
▁تصمیمی	-11938
▁رسيدگي	-11939
▁سلطانی	-11940
▁محوریت	-11941
▁اسراییل	-11942
▁تحریریه	-11943
▁تسلیحات	-11944
▁خواهران	-11945
َنْ	-11946
ارزش	-11947
▁بسط	-11948
▁میب	-11949
▁نبی	-11950
▁کشم	-11951
اخبار	-11952
نتیجه	-11953
▁ادار	-11954
▁جهات	-11955
▁جیمز	-11956
▁شراب	-11957
▁عامه	-11958
▁واگن	-11959
▁کلین	-11960
▁تزئین	-11961
▁جلوتر	-11962
▁درسال	-11963
▁گشایش	-11964
▁اسطوره	-11965
▁افتادم	-11966
▁مهاجران	-11967
▁مهمانان	-11968
ang	-11969
حذف	-11970
منط	-11971
نجا	-11972
▁74	-11973
////	-11974
اجات	-11975
▁بنوش	-11976
▁تعصب	-11977
▁شعور	-11978
▁میثم	-11979
▁مراكز	-11980
▁نیاور	-11981
▁هزاره	-11982
▁انعکاس	-11983
▁زیباست	-11984
▁متعادل	-11985
▁می‌كند	-11986
▁نوزدهم	-11987
▁واژگان	-11988
▁اسرائيل	-11989
▁مسمومیت	-11990
▁اتفاقاتی	-11991
▁کپی‌رایت	-11992
ATF	-11993
ext	-11994
▁52	-11995
شنام	-11996
▁آجر	-11997
▁سهل	-11998
ولوژي	-11999
▁منشا	-12000
▁مکعب	-12001
▁حفاری	-12002
▁رجایی	-12003
▁سردرگ	-12004
▁استایل	-12005
▁اکتشاف	-12006
▁فرمايد	-12007
▁استعلام	-12008
▁می‌بینیم	-12009
)‏	-12010
ِه	-12011
چرخ	-12012
▁).	-12013
ویید	-12014
▁باس	-12015
▁رژه	-12016
▁لين	-12017
▁کتک	-12018
▁خارق	-12019
▁دریغ	-12020
▁زرین	-12021
▁معار	-12022
‌پذیری	-12023
▁افترا	-12024
▁امامی	-12025
▁بدبخت	-12026
▁بستنی	-12027
▁بکنیم	-12028
▁خریدم	-12029
▁ديدار	-12030
▁مبادا	-12031
▁مشهود	-12032
▁اندیشی	-12033
▁زعفران	-12034
▁قانوني	-12035
▁قلمداد	-12036
▁مولانا	-12037
▁هوادار	-12038
▁مدافعان	-12039
▁پاسخنامه	-12040
▁استان‌های	-12041
▁امپراتوری	-12042
‌ساز	-12043
▁رحل	-12044
▁زمز	-12045
▁2010	-12046
▁بواس	-12047
▁رویش	-12048
▁سازش	-12049
▁عضله	-12050
▁فلور	-12051
▁پارا	-12052
▁بیگان	-12053
▁تقصیر	-12054
▁صنعتي	-12055
▁نرسید	-12056
▁هموار	-12057
▁بانکها	-12058
▁بهبودی	-12059
▁دارنده	-12060
▁روايات	-12061
▁ناپدید	-12062
▁شکوفایی	-12063
▁سایت‌های	-12064
▁فیلمنامه	-12065
▁دولتمردان	-12066
کد	-12067
ork	-12068
قبل	-12069
ندج	-12070
▁قو	-12071
▁گس	-12072
ریکا	-12073
‌بخش	-12074
▁بقا	-12075
▁کسي	-12076
▁آماد	-12077
▁بخرم	-12078
▁خواد	-12079
▁فیلس	-12080
▁معلق	-12081
▁هدفی	-12082
▁ساده‌	-12083
▁سندرم	-12084
▁عشایر	-12085
▁معناي	-12086
▁برشمرد	-12087
▁نارگیل	-12088
▁مي‌گويد	-12089
▁همکاری‌های	-12090
ُن	-12091
‌خ	-12092
حاق	-12093
▁41	-12094
اپور	-12095
ینیو	-12096
‌اید	-12097
▁الص	-12098
▁تله	-12099
▁هرز	-12100
▁بانی	-12101
▁دایر	-12102
▁ضمير	-12103
▁موصل	-12104
▁نگری	-12105
▁ژانر	-12106
▁اسپری	-12107
▁تلاوت	-12108
▁سیمرغ	-12109
انتفاعی	-12110
▁اخلاقي	-12111
▁تبریزی	-12112
▁تعاریف	-12113
▁فرآوری	-12114
▁مستضعف	-12115
▁مسیحیت	-12116
▁پاسارگ	-12117
▁برگزاري	-12118
▁نخست‌وزیر	-12119
▁8.	-12120
▁to	-12121
قرآن	-12122
▁(7)	-12123
▁صحی	-12124
▁همی	-12125
دهمین	-12126
طراحی	-12127
▁خارش	-12128
▁عکاس	-12129
▁وقفه	-12130
▁پوند	-12131
همچنین	-12132
▁الحاق	-12133
▁عفونی	-12134
▁لااقل	-12135
▁مصارف	-12136
▁اشکالی	-12137
▁ژانويه	-12138
▁تصادفات	-12139
▁ناامیدی	-12140
▁نگهداري	-12141
▁تلاش‌های	-12142
▁خبرگزاري	-12143
▁خانواده‌های	-12144
سوز	-12145
▁1,	-12146
وووو	-12147
▁110	-12148
▁رتب	-12149
▁نسب	-12150
▁هلا	-12151
داشتن	-12152
گزارش	-12153
‌رسان	-12154
▁برخى	-12155
▁خاصي	-12156
▁خاله	-12157
▁درمی	-12158
▁زلزل	-12159
▁كافي	-12160
▁لیکن	-12161
▁مبین	-12162
▁پاها	-12163
▁انگور	-12164
▁ریالی	-12165
▁مثانه	-12166
▁مصادی	-12167
▁انديشه	-12168
▁یادگار	-12169
▁جهانیان	-12170
▁پولشویی	-12171
▁توانستیم	-12172
▁سازمان‌ها	-12173
▁می‌فرماید	-12174
5.	-12175
لن	-12176
صری	-12177
عشی	-12178
مسئ	-12179
عودی	-12180
چقدر	-12181
▁درا	-12182
▁ریم	-12183
▁غده	-12184
▁ضامن	-12185
▁متفر	-12186
......	-12187
▁اسهال	-12188
▁درصدد	-12189
▁زوجین	-12190
▁گمرکی	-12191
▁انعقاد	-12192
▁دردهای	-12193
▁مایعات	-12194
▁متنوعی	-12195
▁محموله	-12196
▁نمانده	-12197
▁نیروها	-12198
▁پردازی	-12199
▁امامزاده	-12200
▁این‌گونه	-12201
▁مداربسته	-12202
▁کارخانجات	-12203
”.	-12204
امو	-12205
رعه	-12206
iran	-12207
لوبی	-12208
کسلی	-12209
▁ذرت	-12210
▁صدق	-12211
▁فاي	-12212
▁ناف	-12213
▁بزنی	-12214
▁بعضى	-12215
▁بنفش	-12216
▁رسمي	-12217
▁معين	-12218
▁موعد	-12219
▁میری	-12220
▁پنج‌	-12221
▁کوره	-12222
‌گرایی	-12223
▁مهناز	-12224
▁روبروی	-12225
▁تیروئید	-12226
▁شایستگی	-12227
▁کمونیست	-12228
2،	-12229
برید	-12230
کران	-12231
▁آهک	-12232
▁رفق	-12233
▁فوا	-12234
▁ماژ	-12235
▁اذان	-12236
▁ازاد	-12237
▁رحلت	-12238
▁مبدا	-12239
▁ناشر	-12240
▁عاشور	-12241
▁محیط‌	-12242
▁مرسوم	-12243
▁ندیدم	-12244
▁نهمین	-12245
▁واقعي	-12246
▁غالباً	-12247
▁آگاهانه	-12248
▁استقامت	-12249
▁البلاغه	-12250
▁اینصورت	-12251
▁شانزدهم	-12252
▁مخصوصاً	-12253
▁اسپانیایی	-12254
▁می‌پردازد	-12255
▁غیرانتفاعی	-12256
oot	-12257
امر	-12258
امي	-12259
▁هخ	-12260
▁پز	-12261
▁۳۹	-12262
▁آلو	-12263
▁حتى	-12264
▁عطا	-12265
▁کشش	-12266
▁شاکی	-12267
▁ناگز	-12268
▁ابداع	-12269
▁بخرید	-12270
▁تظاهر	-12271
▁توصيه	-12272
▁داشتی	-12273
▁سرزنش	-12274
▁مولفه	-12275
▁گلزار	-12276
▁بمانید	-12277
▁دنیایی	-12278
▁دانلودی	-12279
▁مخابراتی	-12280
▁کالیفرنیا	-12281
23	-12282
راغ	-12283
‌در	-12284
▁؟؟	-12285
▁۸۵	-12286
دیگه	-12287
▁بها	-12288
▁لول	-12289
▁پوز	-12290
▁ادام	-12291
▁اوین	-12292
▁بشین	-12293
▁توسل	-12294
▁حديث	-12295
▁شعری	-12296
▁۱۳۸۷	-12297
▁بلژیک	-12298
▁سرکار	-12299
▁شعبان	-12300
▁مازاد	-12301
▁موازی	-12302
▁پررنگ	-12303
▁کوچیک	-12304
▁پیرمرد	-12305
▁گرداند	-12306
اااااااا	-12307
▁اتصالات	-12308
▁ادعاهای	-12309
▁حسابدار	-12310
▁خانم‌ها	-12311
▁مهمترين	-12312
▁می‌شویم	-12313
▁پروستات	-12314
▁ازبکستان	-12315
▁سیستمهای	-12316
▁می‌دانیم	-12317
▁دستگاه‌ها	-12318
ows	-12319
▁9-	-12320
▁Th	-12321
فالت	-12322
فرین	-12323
میوه	-12324
▁197	-12325
▁بزه	-12326
▁بعث	-12327
▁رفی	-12328
▁شیب	-12329
▁غصه	-12330
گوییم	-12331
▁اوپک	-12332
▁تامل	-12333
▁وفات	-12334
▁کوبا	-12335
▁باهوش	-12336
▁تقويت	-12337
▁جلیلی	-12338
▁سنندج	-12339
▁ناکار	-12340
▁هافبک	-12341
▁پروفس	-12342
▁خواندم	-12343
▁ضایعات	-12344
▁معنویت	-12345
▁كاركنان	-12346
▁فرزندتان	-12347
▁سرماخوردگی	-12348
9.	-12349
مده	-12350
ایتد	-12351
بخشی	-12352
خونه	-12353
وبری	-12354
▁تنه	-12355
▁حتا	-12356
▁حلب	-12357
▁سرب	-12358
ورتان	-12359
▁بيست	-12360
▁ثانی	-12361
▁جنتی	-12362
▁سفيد	-12363
▁مونی	-12364
▁بهزاد	-12365
▁بگیری	-12366
▁عملاً	-12367
▁مزرعه	-12368
▁مسلما	-12369
▁اختتام	-12370
▁دقایقی	-12371
▁سخنانی	-12372
▁میبینم	-12373
▁انگشتان	-12374
▁مسلحانه	-12375
▁مي‌گردد	-12376
▁چالش‌های	-12377
▁فیزیولوژی	-12378
فم	-12379
▁ى	-12380
مرب	-12381
نتو	-12382
▁At	-12383
استخ	-12384
▁قشم	-12385
▁مفق	-12386
▁۱۲۰	-12387
دهایی	-12388
▁تنگه	-12389
▁روضه	-12390
▁کوثر	-12391
▁افشای	-12392
▁خودشو	-12393
▁قرمزی	-12394
▁مخارج	-12395
▁میرفت	-12396
▁مهدویت	-12397
▁می‌گیر	-12398
▁بسکتبال	-12399
▁راه‌آهن	-12400
▁مخاطبین	-12401
▁می‌دانم	-12402
▁امکاناتی	-12403
▁خواستگار	-12404
▁شکل‌گیری	-12405
ps	-12406
‌!	-12407
ink	-12408
يه‌	-12409
يدند	-12410
▁خیز	-12411
▁كشف	-12412
▁بتنی	-12413
▁بيني	-12414
▁مفاه	-12415
▁۲۰۱۰	-12416
▁اهانت	-12417
▁بپرسم	-12418
▁تلاشی	-12419
▁ديوار	-12420
▁رهنما	-12421
▁فوریت	-12422
▁میمون	-12423
▁گفتید	-12424
▁برخاست	-12425
▁تدریجی	-12426
▁تورهای	-12427
▁مدلهای	-12428
▁بلندمدت	-12429
ثل	-12430
مری	-12431
میع	-12432
پاسخ	-12433
▁ولت	-12434
▁2008	-12435
▁ترجم	-12436
▁یزید	-12437
▁تبعیت	-12438
▁تعبیه	-12439
▁نیستن	-12440
▁آنکارا	-12441
▁ابوبکر	-12442
▁اسماعی	-12443
▁خواهيم	-12444
▁ماهیچه	-12445
▁نماييد	-12446
▁همكاري	-12447
▁رمانتیک	-12448
▁همراهان	-12449
▁بازگشایی	-12450
▁دادخواست	-12451
ائو	-12452
سکی	-12453
ضوی	-12454
نوش	-12455
▁1،	-12456
▁IT	-12457
رتون	-12458
وهید	-12459
▁تمه	-12460
▁هرو	-12461
ورپول	-12462
▁تخمک	-12463
▁ديگه	-12464
▁منوط	-12465
▁جاسوس	-12466
▁قدرتی	-12467
▁وسوسه	-12468
▁تریبون	-12469
▁دنباله	-12470
▁ظاهراً	-12471
▁نازنین	-12472
▁نیاورد	-12473
▁پشیمان	-12474
▁فرمائید	-12475
▁پرداختی	-12476
▁آیین‌نامه	-12477
‎‎	-12478
ong	-12479
ائي	-12480
ترت	-12481
وني	-12482
▁؟؟؟	-12483
▁بلغ	-12484
▁رأس	-12485
▁زهر	-12486
▁لثه	-12487
▁مرض	-12488
▁هکر	-12489
اینکه	-12490
▁مانی	-12491
▁موسس	-12492
nglish	-12493
مدیریت	-12494
▁رویار	-12495
▁قریشی	-12496
▁منتها	-12497
▁وکلای	-12498
▁پیتزا	-12499
▁بناهای	-12500
▁خانمها	-12501
▁مصادیق	-12502
▁زمانیکه	-12503
▁مصدومیت	-12504
▁خانه‌های	-12505
-10	-12506
ئيد	-12507
▁78	-12508
▁89	-12509
▁دژ	-12510
▁چن	-12511
...)	-12512
طالب	-12513
هایم	-12514
وکار	-12515
▁بپذ	-12516
▁دلی	-12517
▁آذری	-12518
▁اروپ	-12519
▁سیلی	-12520
▁طلوع	-12521
▁عقید	-12522
▁عوام	-12523
▁قضات	-12524
▁آوردم	-12525
▁دیدید	-12526
▁مسوول	-12527
▁اساساً	-12528
▁شهريور	-12529
▁ترافیکی	-12530
▁ماه‌های	-12531
▁کوهستان	-12532
▁آزادسازی	-12533
▁ارزشیابی	-12534
▁می‌دادند	-12535
حک	-12536
ark	-12537
رمن	-12538
عمل	-12539
یاد	-12540
رسمی	-12541
▁باط	-12542
▁خلو	-12543
نویسی	-12544
▁بخشي	-12545
▁تشنه	-12546
▁حریق	-12547
▁معني	-12548
▁ملزم	-12549
▁پنجر	-12550
▁کاذب	-12551
▁یکصد	-12552
▁آشكار	-12553
▁بتونم	-12554
▁جزایر	-12555
▁ده‌ها	-12556
▁عادات	-12557
▁نامید	-12558
▁ناچیز	-12559
▁اندازد	-12560
▁باروری	-12561
▁تحقیقی	-12562
▁توئیتر	-12563
▁اثربخشی	-12564
▁استمرار	-12565
▁تغييرات	-12566
▁میکردند	-12567
▁توضیحاتی	-12568
68	-12569
ant	-12570
فور	-12571
هوا	-12572
▁68	-12573
شانی	-12574
مهدی	-12575
پرسی	-12576
▁رجی	-12577
▁فلج	-12578
ستقیم	-12579
▁سربل	-12580
▁فقره	-12581
▁هيأت	-12582
▁اجناس	-12583
▁حوالی	-12584
▁سرويس	-12585
▁کشیدم	-12586
▁گردیم	-12587
▁مناطقی	-12588
▁موسيقي	-12589
▁اختیاری	-12590
▁اینجانب	-12591
▁بازجویی	-12592
▁نمی‌دانم	-12593
▁دیدگاه‌ها	-12594
IP	-12595
pl	-12596
افه	-12597
جوش	-12598
فرض	-12599
▁آلا	-12600
▁انط	-12601
▁جری	-12602
▁سنا	-12603
▁طفل	-12604
▁همۀ	-12605
▁هیپ	-12606
راهای	-12607
▁آریا	-12608
▁مالك	-12609
▁میشی	-12610
▁نیفت	-12611
▁پرین	-12612
▁پنجه	-12613
▁مکتوب	-12614
▁اونایی	-12615
▁بدبختی	-12616
▁بوستان	-12617
▁ارزيابي	-12618
▁داده‌ها	-12619
▁شعارهای	-12620
▁میخواست	-12621
▁پروفسور	-12622
▁کمک‌های	-12623
▁استارتاپ	-12624
▁متغیرهای	-12625
IT	-12626
ph	-12627
۹۵	-12628
▁y	-12629
▁أَ	-12630
▁صب	-12631
غییر	-12632
قلاب	-12633
▁برح	-12634
▁شأن	-12635
▁كوه	-12636
▁اسکی	-12637
▁حیطه	-12638
▁دغدغ	-12639
▁رژيم	-12640
▁سوگو	-12641
▁سياه	-12642
▁طوري	-12643
▁وکار	-12644
▁کینه	-12645
▁اینان	-12646
▁بخواد	-12647
▁حسادت	-12648
▁به‌دست	-12649
▁می‌آمد	-12650
▁افزودند	-12651
▁غلامرضا	-12652
▁نامحدود	-12653
▁نماينده	-12654
▁چهارچوب	-12655
▁سپاسگزار	-12656
▁دانشگاهها	-12657
▁مهارت‌های	-12658
َة	-12659
act	-12660
ايف	-12661
ژان	-12662
کره	-12663
▁77	-12664
جمعه	-12665
طیسی	-12666
▁140	-12667
▁720	-12668
▁for	-12669
▁باک	-12670
▁حلی	-12671
▁شفر	-12672
ution	-12673
ولوشن	-12674
‌کنند	-12675
▁تلخی	-12676
▁توست	-12677
▁زکات	-12678
▁شامپ	-12679
▁مبتل	-12680
▁ناسا	-12681
▁نكرد	-12682
ه‌داری	-12683
▁ازتون	-12684
▁تسویه	-12685
▁دیوید	-12686
▁رابرت	-12687
▁سازان	-12688
▁فارسي	-12689
▁مختار	-12690
▁معیشت	-12691
▁نهادی	-12692
▁هاشون	-12693
▁کمربند	-12694
▁به‌ویژه	-12695
▁مدل‌های	-12696
▁سانتیمتر	-12697
▁التحصیلان	-12698
▁ظرفیت‌های	-12699
:)	-12700
ائب	-12701
▁كف	-12702
▁۳۴	-12703
صفحه	-12704
پسول	-12705
▁رفر	-12706
▁رنو	-12707
▁لام	-12708
▁موه	-12709
▁ادای	-12710
▁بطری	-12711
▁بيمه	-12712
▁تربت	-12713
▁تورو	-12714
▁خلال	-12715
▁سرفه	-12716
▁شبهه	-12717
▁طوسی	-12718
▁فطرت	-12719
▁قبيل	-12720
▁مملو	-12721
▁نافر	-12722
▁تفرقه	-12723
▁تلفیق	-12724
▁صدمین	-12725
▁مواظب	-12726
▁موضعی	-12727
▁هستيد	-12728
▁پاشنه	-12729
▁پیچید	-12730
▁اخیراً	-12731
▁طبقاتی	-12732
▁معاویه	-12733
▁معادلات	-12734
▁استادیوم	-12735
▁بی‌بی‌سی	-12736
چک	-12737
200	-12738
ارى	-12739
نجر	-12740
▁لس	-12741
====	-12742
واست	-12743
▁بجز	-12744
▁شيخ	-12745
▁علف	-12746
▁متد	-12747
▁میذ	-12748
▁نيم	-12749
انیوم	-12750
▁بروی	-12751
▁حاجت	-12752
▁حباب	-12753
▁طلبه	-12754
▁عنکب	-12755
▁پاست	-12756
▁یمنی	-12757
انتخاب	-12758
▁حيوان	-12759
▁طبيعت	-12760
▁نظامي	-12761
▁ادراری	-12762
▁عبارات	-12763
▁نویسان	-12764
▁دگرگونی	-12765
▁بپردازیم	-12766
۹۸	-12767
یدر	-12768
▁Ph	-12769
▁اذن	-12770
▁حیف	-12771
▁كسی	-12772
▁میم	-12773
▁هال	-12774
▁چید	-12775
منتشر	-12776
نگاری	-12777
▁رسند	-12778
▁فصول	-12779
▁مغرب	-12780
▁گریز	-12781
▁۲۰۰۰	-12782
indows	-12783
سازمان	-12784
▁اقرار	-12785
▁تعویق	-12786
▁حراست	-12787
▁مخازن	-12788
▁وسواس	-12789
▁چمران	-12790
▁آفتابی	-12791
▁متعارف	-12792
▁می‌خور	-12793
▁حرف‌های	-12794
▁سوالاتی	-12795
▁ویژه‌بر	-12796
▁هوشمندانه	-12797
بحث	-12798
دور	-12799
حلال	-12800
میشه	-12801
▁جین	-12802
▁درح	-12803
▁قوس	-12804
ative	-12805
ه‌شان	-12806
‌کالا	-12807
▁آیتم	-12808
▁بودج	-12809
▁تاجر	-12810
▁جورج	-12811
▁رفتی	-12812
▁سعود	-12813
▁سوزش	-12814
▁صبور	-12815
▁منبر	-12816
▁نرود	-12817
▁کیان	-12818
▁اصناف	-12819
▁قابل‌	-12820
▁مدیون	-12821
▁مغایر	-12822
▁مفاصل	-12823
▁کاسته	-12824
▁کسایی	-12825
▁کنجکا	-12826
▁آسفالت	-12827
▁خاشقچی	-12828
▁درآمدی	-12829
▁دنیاست	-12830
▁راه‌حل	-12831
▁رفتارها	-12832
▁آزمایشات	-12833
▁دموکراتیک	-12834
▁چشم‌انداز	-12835
▁شریعتمداری	-12836
ik	-12837
ة‌	-12838
۶۷	-12839
علي	-12840
▁ربا	-12841
▁موف	-12842
▁کنش	-12843
▁بایت	-12844
▁خیار	-12845
▁دستت	-12846
▁مشاب	-12847
▁منحص	-12848
▁عزیزی	-12849
▁نفتکش	-12850
▁نگاری	-12851
▁پيمان	-12852
▁بازدار	-12853
▁تاکتیک	-12854
▁سوختگی	-12855
▁میدونه	-12856
▁بعدازظهر	-12857
▁کاندیدای	-12858
▁تروریست‌ها	-12859
5]	-12860
66	-12861
‏‏	-12862
آيد	-12863
ریتی	-12864
▁توز	-12865
▁فسخ	-12866
پذیرد	-12867
▁فیلد	-12868
▁ندای	-12869
▁کارو	-12870
خواهان	-12871
▁جواهر	-12872
▁دویدن	-12873
▁غذايي	-12874
▁منزله	-12875
▁گروهک	-12876
▁اسکندر	-12877
▁بیهوده	-12878
▁تکفیری	-12879
▁عثمانی	-12880
▁واقعيت	-12881
▁لیورپول	-12882
▁اختتامیه	-12883
▁روانشناس	-12884
▁روزنامه‌های	-12885
/3	-12886
عض	-12887
▁59	-12888
لیام	-12889
▁بجن	-12890
▁دات	-12891
▁سرچ	-12892
▁فحش	-12893
▁قال	-12894
▁چين	-12895
كننده	-12896
▁آبرو	-12897
▁اغتش	-12898
▁الکی	-12899
▁تعرض	-12900
▁سوزن	-12901
▁قلبم	-12902
▁قمار	-12903
▁ملود	-12904
▁چاپی	-12905
▁آفرید	-12906
▁بسازد	-12907
▁سرانه	-12908
▁شاهنش	-12909
▁منعقد	-12910
▁موادی	-12911
▁کارفر	-12912
▁منتظری	-12913
▁توانايي	-12914
▁مطبوعاتی	-12915
Sh	-12916
سپ	-12917
صن	-12918
ِّ	-12919
احب	-12920
عدی	-12921
‌بی	-12922
▁ــ	-12923
▁۴۲	-12924
▁۴۴	-12925
ستین	-12926
میرم	-12927
▁الز	-12928
▁ساق	-12929
▁پاه	-12930
▁کیت	-12931
گذارد	-12932
▁خداى	-12933
▁خوای	-12934
▁شرطی	-12935
▁شهوت	-12936
▁فریز	-12937
▁مفيد	-12938
▁اومدن	-12939
▁جوابی	-12940
▁مجاور	-12941
▁پيوند	-12942
▁چجوری	-12943
▁یکنوا	-12944
▁اختلاس	-12945
▁کارتان	-12946
▁بنیادین	-12947
▁میباشند	-12948
▁پاسپورت	-12949
▁کربوهید	-12950
▁دانشگاههای	-12951
oft	-12952
اطه	-12953
كثر	-12954
نتا	-12955
▁تدر	-12956
▁پیج	-12957
تومان	-12958
▁اسکر	-12959
▁حسگر	-12960
▁فقها	-12961
▁كلام	-12962
▁کافر	-12963
▁اکثرا	-12964
▁شگفتی	-12965
▁غربال	-12966
▁موثری	-12967
▁پدران	-12968
▁پریود	-12969
▁یکسری	-12970
▁آمازون	-12971
▁ارتکاب	-12972
▁اهتمام	-12973
▁بمانند	-12974
▁بیچاره	-12975
▁جمعیتی	-12976
▁حسینیه	-12977
▁پرسیده	-12978
▁کشیدند	-12979
▁بخوانند	-12980
▁جانبازان	-12981
/7	-12982
138	-12983
ode	-12984
بسی	-12985
جاج	-12986
▁فخر	-12987
▁پود	-12988
▁کله	-12989
نمایش	-12990
▁FATF	-12991
▁دیتا	-12992
▁قطبی	-12993
▁متکی	-12994
▁آثاری	-12995
▁اطمين	-12996
▁جسارت	-12997
▁طارمی	-12998
▁فضیلت	-12999
▁امتیازی	-13000
▁بزرگ‌تر	-13001
▁بهره‌وری	-13002
▁صحبت‌های	-13003
▁ساختارهای	-13004
▁ناخودآگاه	-13005
اث	-13006
كده	-13007
اهنگ	-13008
▁حمد	-13009
▁خلع	-13010
▁دیم	-13011
▁زام	-13012
▁سپه	-13013
▁مژه	-13014
▁گیج	-13015
ایانه	-13016
▁دهها	-13017
▁فروع	-13018
بهترین	-13019
▁ادویه	-13020
▁برایت	-13021
▁حقوقي	-13022
▁دکترا	-13023
▁رنگار	-13024
▁پهپاد	-13025
▁چارتر	-13026
▁کرایه	-13027
▁تابعیت	-13028
▁تخمدان	-13029
▁حرفهای	-13030
▁شکایات	-13031
▁پرتقال	-13032
▁پلاگین	-13033
▁دستگاهی	-13034
▁میانمار	-13035
▁رویارویی	-13036
▁غیرنظامی	-13037
▁مقام‌های	-13038
="	-13039
ST	-13040
oh	-13041
وغ	-13042
▁PH	-13043
▁حز	-13044
فکری	-13045
▁حوض	-13046
▁مسن	-13047
▁بعدي	-13048
▁رابه	-13049
▁رادي	-13050
▁سویا	-13051
▁شاسی	-13052
▁طاقت	-13053
▁لاله	-13054
▁منشأ	-13055
▁پدری	-13056
▁کبود	-13057
▁یادت	-13058
خواهند	-13059
▁تقلبی	-13060
▁ظرفيت	-13061
▁مبتدی	-13062
▁همین‌	-13063
▁کمرنگ	-13064
▁اجرايي	-13065
▁کودتای	-13066
▁دیجی‌کالا	-13067
ays	-13068
کلن	-13069
ower	-13070
ودگی	-13071
کتوس	-13072
▁انش	-13073
▁سير	-13074
▁فیض	-13075
▁نوح	-13076
ترانه	-13077
▁تونی	-13078
▁جنسي	-13079
▁حصول	-13080
▁سزار	-13081
▁طناب	-13082
▁مؤسس	-13083
▁مساف	-13084
▁نوعي	-13085
▁گیرم	-13086
▁برای‌	-13087
▁بکنند	-13088
▁جوانه	-13089
▁شناسي	-13090
▁متاهل	-13091
▁محافل	-13092
▁همايش	-13093
▁ارکستر	-13094
▁باشکوه	-13095
▁تطبیقی	-13096
▁شوراها	-13097
▁فرهادی	-13098
▁مهندسي	-13099
▁ناگفته	-13100
▁کشاورز	-13101
▁اسماعیلی	-13102
ev	-13103
man	-13104
▁72	-13105
▁86	-13106
▁al	-13107
قاعد	-13108
ماری	-13109
متری	-13110
ومند	-13111
کانی	-13112
یران	-13113
▁اره	-13114
▁دمن	-13115
▁قبض	-13116
▁چمن	-13117
▁گند	-13118
▁بپره	-13119
▁ناآر	-13120
▁واعظ	-13121
▁وداع	-13122
ربستان	-13123
▁تالیف	-13124
▁نشدند	-13125
▁نگیرد	-13126
▁پرشور	-13127
▁بين‌ال	-13128
▁عرفانی	-13129
▁متهمان	-13130
▁مسلمین	-13131
▁مناجات	-13132
▁ناکامی	-13133
▁ویروسی	-13134
▁آسانسور	-13135
▁اشکالات	-13136
▁بچه‌های	-13137
▁خودرویی	-13138
▁معصومین	-13139
▁گردهمایی	-13140
▁رقابت‌های	-13141
▁فرآیندهای	-13142
آش	-13143
وها	-13144
چهر	-13145
یتا	-13146
▁رپ	-13147
▁All	-13148
▁سپر	-13149
▁صلى	-13150
▁قفس	-13151
▁واج	-13152
شدگان	-13153
▁آشام	-13154
▁بگین	-13155
▁رقبا	-13156
▁شستن	-13157
▁غلات	-13158
▁نروژ	-13159
▁پارت	-13160
▁برهان	-13161
▁خسروی	-13162
▁دفعات	-13163
▁نقاله	-13164
▁نوبخت	-13165
▁گويند	-13166
▁گیریم	-13167
▁اغتشاش	-13168
▁برگزید	-13169
▁دیداری	-13170
▁شجریان	-13171
▁پیمانه	-13172
▁اعلامیه	-13173
▁درصورتی	-13174
▁سریع‌تر	-13175
▁میخواهد	-13176
▁نگارنده	-13177
▁داروخانه	-13178
حدی	-13179
▁82	-13180
▁تحو	-13181
▁ترو	-13182
▁۳۲۰	-13183
زندگی	-13184
▁بینش	-13185
▁دهيم	-13186
▁ساقه	-13187
▁مجرم	-13188
▁وزرا	-13189
▁یادش	-13190
▁باراک	-13191
▁بالاي	-13192
▁بخاری	-13193
▁تركيب	-13194
▁جست‌و	-13195
▁غالبا	-13196
▁گلدان	-13197
▁بالگرد	-13198
▁گروگان	-13199
▁گلخانه	-13200
▁آزادگان	-13201
▁مروارید	-13202
▁بهره‌مند	-13203
▁تأثیرگذار	-13204
▁رئیس‌جمهوری	-13205
5-	-13206
رر	-13207
پال	-13208
▁vi	-13209
▁۴۶	-13210
▁۶۴	-13211
موسی	-13212
وریا	-13213
چارد	-13214
▁10-	-13215
▁ریو	-13216
▁سوت	-13217
▁ضعی	-13218
▁نبش	-13219
امکان	-13220
‌بازی	-13221
▁1387	-13222
▁اسمی	-13223
▁برهم	-13224
▁توکل	-13225
▁دخیل	-13226
▁قیاس	-13227
▁كامپ	-13228
▁نيمه	-13229
▁هویج	-13230
▁تحکیم	-13231
▁فرعون	-13232
▁قیافه	-13233
▁نكرده	-13234
▁افغانی	-13235
▁حاملگی	-13236
▁حیوانی	-13237
▁شامگاه	-13238
▁مهارتی	-13239
▁پایینی	-13240
▁کابینت	-13241
▁می‌دهید	-13242
▁اسفندماه	-13243
▁می‌آورند	-13244
▁ناباروری	-13245
▁جاذبه‌های	-13246
rib	-13247
بنا	-13248
تیو	-13249
ملک	-13250
ورز	-13251
‌بر	-13252
▁3)	-13253
▁53	-13254
▁Un	-13255
ایری	-13256
‌شدن	-13257
▁بجا	-13258
▁جاش	-13259
▁منج	-13260
▁گول	-13261
earch	-13262
▁انتح	-13263
▁تفحص	-13264
▁خطری	-13265
▁ضخیم	-13266
▁عترت	-13267
▁مارت	-13268
▁مطاب	-13269
▁ابطال	-13270
▁بهاری	-13271
▁تأخیر	-13272
▁تریلر	-13273
▁صادره	-13274
▁مارکس	-13275
▁میزار	-13276
▁نظريه	-13277
▁نیمکت	-13278
▁ژوئیه	-13279
▁کشاند	-13280
▁بارانی	-13281
▁حاکمان	-13282
▁حداكثر	-13283
▁نارنجی	-13284
▁نظریات	-13285
▁کارشان	-13286
▁كاربران	-13287
▁کوهستانی	-13288
ain	-13289
ill	-13290
ناي	-13291
ویو	-13292
▁لش	-13293
▁وط	-13294
آقای	-13295
آنچه	-13296
اقتص	-13297
لاقی	-13298
کشان	-13299
▁May	-13300
▁اگز	-13301
▁بنش	-13302
▁دفت	-13303
▁شوش	-13304
▁كرب	-13305
▁باطن	-13306
▁خبري	-13307
▁سنگر	-13308
▁عازم	-13309
▁فلاح	-13310
▁كلاس	-13311
▁ناهم	-13312
رکاران	-13313
▁آستین	-13314
▁پربین	-13315
▁الحسنه	-13316
▁باورند	-13317
▁سالاری	-13318
▁مستمری	-13319
▁ناسالم	-13320
▁استفراغ	-13321
▁اطمينان	-13322
▁القاعده	-13323
▁رزولوشن	-13324
▁غذاهایی	-13325
▁غیرفعال	-13326
▁فداکاری	-13327
▁منافقین	-13328
▁فروشگاهی	-13329
▁قزاقستان	-13330
▁برنامه‌ای	-13331
▁شخصیت‌های	-13332
▁علاقه‌مند	-13333
6]	-13334
og	-13335
باغ	-13336
▁99	-13337
ابیت	-13338
اهده	-13339
طلبی	-13340
▁نعم	-13341
تصویر	-13342
دنبال	-13343
گرافی	-13344
▁جواز	-13345
▁حالى	-13346
▁زوال	-13347
▁سهمی	-13348
▁مرکب	-13349
▁اشتها	-13350
▁خونین	-13351
▁مزارع	-13352
▁مهتاب	-13353
▁هفدهم	-13354
▁اشخاصی	-13355
▁انطباق	-13356
▁مسالمت	-13357
▁پيغمبر	-13358
▁گوارشی	-13359
▁اکسپریا	-13360
▁مهندسان	-13361
▁مبتلایان	-13362
AM	-13363
ثق	-13364
▁(7	-13365
▁(8	-13366
▁66	-13367
هفته	-13368
▁ژور	-13369
▁یکى	-13370
‌شناس	-13371
▁1080	-13372
▁اسبق	-13373
▁جدیت	-13374
▁سیتی	-13375
▁شیرد	-13376
▁امپرا	-13377
▁بی‌نظ	-13378
▁سروده	-13379
▁شریفی	-13380
▁مانعی	-13381
▁نمرات	-13382
▁برادرم	-13383
▁جغرافیا	-13384
▁دوستانش	-13385
▁غیردولتی	-13386
▁ایرانی‌ها	-13387
▁قابلیت‌های	-13388
),	-13389
/6	-13390
اوت	-13391
ناك	-13392
يزه	-13393
▁Sc	-13394
▁فك	-13395
فورد	-13396
▁---	-13397
▁جوز	-13398
▁شمش	-13399
▁عصب	-13400
گاران	-13401
▁آخرش	-13402
▁اتکا	-13403
▁ذوال	-13404
▁پرسی	-13405
▁تجهيز	-13406
▁تخصصي	-13407
▁تسخیر	-13408
▁ماژول	-13409
▁میلان	-13410
▁چندين	-13411
‌افزاری	-13412
▁طبیعتا	-13413
▁عبدالع	-13414
▁محدودی	-13415
▁میخوره	-13416
▁کاشانی	-13417
▁امتحانی	-13418
▁استادیار	-13419
▁رویدادها	-13420
▁گفته‌اند	-13421
▁سرمایه‌گذاران	-13422
ide	-13423
سلی	-13424
cess	-13425
ادرت	-13426
▁USB	-13427
▁اخه	-13428
▁رأي	-13429
▁سبك	-13430
▁ديني	-13431
▁مبنا	-13432
▁پتاس	-13433
▁پوکی	-13434
▁جنگلی	-13435
▁رقبای	-13436
▁شبهات	-13437
▁وظايف	-13438
▁پهنای	-13439
▁گلزنی	-13440
▁سیزدهم	-13441
▁مطابقت	-13442
▁گذراند	-13443
▁بردارند	-13444
▁بیولوژی	-13445
▁دوجانبه	-13446
▁موردنظر	-13447
▁نويسنده	-13448
▁ارزش‌های	-13449
▁هزینه‌ها	-13450
▁راهکارهایی	-13451
)-	-13452
BC	-13453
جید	-13454
متن	-13455
ميل	-13456
▁)،	-13457
▁ود	-13458
▁پک	-13459
وینی	-13460
▁اجر	-13461
▁باي	-13462
▁بي‌	-13463
▁خشك	-13464
▁ذيل	-13465
▁مچی	-13466
▁نقی	-13467
▁وفا	-13468
▁بلاک	-13469
▁ثواب	-13470
▁حومه	-13471
▁خلوص	-13472
▁رستم	-13473
▁وانت	-13474
▁پديد	-13475
▁آیکون	-13476
▁احاطه	-13477
▁خوردم	-13478
▁مابقی	-13479
عبدالله	-13480
▁اروپای	-13481
▁توسعه‌	-13482
▁دیوونه	-13483
▁زرتشتی	-13484
▁بازماند	-13485
▁تشریفات	-13486
▁میگویند	-13487
▁پارسیان	-13488
▁کرده‌ام	-13489
ron	-13490
برده	-13491
حضرت	-13492
سالی	-13493
عهدی	-13494
‌تاپ	-13495
▁بيد	-13496
▁تیل	-13497
▁نیل	-13498
▁هری	-13499
ایتان	-13500
▁سال‌	-13501
▁پاوه	-13502
▁کنده	-13503
▁اسحاق	-13504
▁اشباع	-13505
▁تندرو	-13506
▁فايده	-13507
▁نسخهٔ	-13508
▁کلیات	-13509
▁سرامیک	-13510
▁كارهاي	-13511
▁توانستم	-13512
▁رنگارنگ	-13513
▁سازندگی	-13514
▁پانزدهم	-13515
▁پژوهشکده	-13516
91	-13517
:"	-13518
دد	-13519
اطق	-13520
الف	-13521
رور	-13522
عین	-13523
پیچ	-13524
▁360	-13525
▁الر	-13526
▁بنر	-13527
▁گلد	-13528
▁داري	-13529
▁ديدم	-13530
▁شخصا	-13531
▁درخشش	-13532
▁متعاق	-13533
▁مركزي	-13534
▁پارسا	-13535
▁پاهای	-13536
▁گوییم	-13537
▁المللي	-13538
▁بزارید	-13539
▁فرمایش	-13540
▁مهرداد	-13541
▁اصولگرا	-13542
▁انجامید	-13543
▁مجوزهای	-13544
▁محتوایی	-13545
▁دیوارهای	-13546
▁می‌کردیم	-13547
▁پرسش‌های	-13548
▁خبرآنلاین	-13549
▁خواسته‌های	-13550
SP	-13551
ّى	-13552
ars	-13553
فیس	-13554
▁ین	-13555
ایای	-13556
قرار	-13557
▁Dec	-13558
▁بقی	-13559
▁فرح	-13560
▁فرخ	-13561
▁بهان	-13562
▁جايي	-13563
▁دوخت	-13564
▁رجوی	-13565
▁زائر	-13566
▁سموم	-13567
▁عشقی	-13568
▁لایت	-13569
▁چلسی	-13570
▁گیره	-13571
▁آموزه	-13572
▁ارادت	-13573
▁ببینی	-13574
▁تولدت	-13575
▁خودار	-13576
▁شيطان	-13577
▁كسانى	-13578
▁مبالغ	-13579
▁معمار	-13580
▁می‌زد	-13581
▁نادری	-13582
▁نپذیر	-13583
▁بروجرد	-13584
▁روزافز	-13585
▁ساختند	-13586
▁شاهکار	-13587
▁مبادرت	-13588
▁پاسدار	-13589
▁پیشانی	-13590
▁می‌دارد	-13591
▁نارسایی	-13592
▁وحشیانه	-13593
▁اورجینال	-13594
▁دولت‌های	-13595
▁قراردادها	-13596
▁سوءاستفاده	-13597
▁ویژه‌برنامه‌ها	-13598
/8	-13599
ld	-13600
ult	-13601
ئیت	-13602
اضي	-13603
ايق	-13604
حدا	-13605
صدا	-13606
▁،‌	-13607
gram	-13608
عادی	-13609
‌زده	-13610
▁DVD	-13611
▁بشی	-13612
▁وضو	-13613
زایمر	-13614
▁متال	-13615
▁آمیزی	-13616
▁الماس	-13617
▁دهکده	-13618
▁متحمل	-13619
▁گیرید	-13620
▁ارزهای	-13621
▁تراکنش	-13622
▁لپ‌تاپ	-13623
▁مشابهی	-13624
▁یادتان	-13625
▁المپیاد	-13626
▁انسانیت	-13627
▁بفرستید	-13628
▁منصفانه	-13629
▁نمی‌شوند	-13630
ِي	-13631
پو	-13632
ial	-13633
خوب	-13634
پزشک	-13635
ژادی	-13636
▁متص	-13637
▁یوز	-13638
▁اوّل	-13639
▁بوکس	-13640
▁سخنی	-13641
▁مجته	-13642
▁معرو	-13643
▁تمهید	-13644
▁درهای	-13645
▁رویای	-13646
▁مفاسد	-13647
▁نگذار	-13648
▁هخامن	-13649
شاءالله	-13650
▁افرادي	-13651
▁دربارۀ	-13652
▁دسترسي	-13653
▁متقاعد	-13654
▁پیامکی	-13655
▁گازهای	-13656
▁مشروعیت	-13657
▁گرفتاری	-13658
▁گسترده‌ای	-13659
نخ	-13660
org	-13661
فوع	-13662
▁بك	-13663
▁۴٫	-13664
blog	-13665
ادیم	-13666
▁تفت	-13667
▁لال	-13668
▁نخل	-13669
تولید	-13670
▁بیار	-13671
▁داود	-13672
▁مصری	-13673
▁کاشم	-13674
▁گوهر	-13675
▁ازاین	-13676
▁اطفال	-13677
▁بتونه	-13678
▁بفرما	-13679
▁خورند	-13680
▁عروقی	-13681
▁فاطمی	-13682
▁محسوس	-13683
▁همجنس	-13684
▁گیتار	-13685
▁استفاد	-13686
▁اسمارت	-13687
▁بتوانم	-13688
▁علامتی	-13689
▁مواردي	-13690
▁می‌اند	-13691
▁آلزایمر	-13692
▁انسولین	-13693
▁خواندند	-13694
▁مکانیزم	-13695
▁سیاستمداران	-13696
">	-13697
وظ	-13698
يج	-13699
َف	-13700
▁sh	-13701
▁تت	-13702
▁كد	-13703
یدیم	-13704
▁900	-13705
▁درز	-13706
▁شیا	-13707
▁عود	-13708
▁تخم‌	-13709
▁كارت	-13710
▁كمال	-13711
▁ویلا	-13712
▁کیفر	-13713
میلادی	-13714
▁اینده	-13715
▁بخوام	-13716
▁زرتشت	-13717
▁بعلاوه	-13718
▁والدين	-13719
▁ویلیام	-13720
▁پرچمدار	-13721
▁چهاردهم	-13722
▁كرده‌اند	-13723
▁می‌رساند	-13724
57	-13725
CD	-13726
»(	-13727
نور	-13728
▁۶۶	-13729
roid	-13730
ابون	-13731
چیزی	-13732
▁آنف	-13733
▁تود	-13734
▁زوم	-13735
▁سرگ	-13736
▁فتن	-13737
▁مكت	-13738
▁۸۰۰	-13739
arget	-13740
انسان	-13741
▁بشید	-13742
▁بمون	-13743
▁جاري	-13744
▁میرح	-13745
▁چانه	-13746
▁گراف	-13747
▁انگلي	-13748
▁عمارت	-13749
▁كرديم	-13750
▁مشاهد	-13751
▁می‌فر	-13752
▁نمایم	-13753
▁جشنوار	-13754
▁زیباتر	-13755
▁شاهرود	-13756
▁عاشقان	-13757
▁مرتضوی	-13758
▁معاهده	-13759
▁اعتمادی	-13760
▁سنگاپور	-13761
▁دوستداران	-13762
▁کلاهبرداری	-13763
ّي	-13764
وون	-13765
▁03	-13766
افرا	-13767
جدول	-13768
پذير	-13769
▁LED	-13770
▁بسر	-13771
▁جنی	-13772
▁دسر	-13773
▁فین	-13774
▁کنک	-13775
زمانی	-13776
ورهای	-13777
▁بمال	-13778
▁تنگی	-13779
▁دردی	-13780
▁ريزي	-13781
▁شنود	-13782
▁طالع	-13783
▁کالب	-13784
وتراپی	-13785
▁آشفته	-13786
▁اشترا	-13787
▁ربوده	-13788
▁سياسی	-13789
▁معانی	-13790
▁مفقود	-13791
▁مونیخ	-13792
▁بازنشر	-13793
▁متشکرم	-13794
▁می‌دهم	-13795
▁همدردی	-13796
▁کنندگی	-13797
▁باغبانی	-13798
▁به‌دلیل	-13799
▁معترضان	-13800
▁مي‌گيرد	-13801
▁درخواستی	-13802
▁فاکتورهای	-13803
▁کربوهیدرات	-13804
ــــــــــــــــ	-13805
آغ	-13806
ئى	-13807
ُه	-13808
سمس	-13809
▁51	-13810
icro	-13811
▁Man	-13812
▁بکر	-13813
▁ظال	-13814
▁نشی	-13815
▁هلی	-13816
▁يکی	-13817
ترینگ	-13818
کاتور	-13819
▁ایرج	-13820
▁خبره	-13821
▁عبرت	-13822
▁فرضی	-13823
▁فقيه	-13824
▁لابی	-13825
▁مرمت	-13826
▁نزاع	-13827
▁کاوی	-13828
الشهدا	-13829
▁اخلال	-13830
▁خیالی	-13831
▁ماهان	-13832
▁می‌شن	-13833
▁ویکی‌	-13834
▁ناشران	-13835
▁ناظران	-13836
▁خیلی‌ها	-13837
▁سرشماری	-13838
▁فرستادن	-13839
▁محصولاتی	-13840
▁گزینه‌های	-13841
▁آذربایجان‌	-13842
ْه	-13843
-2-	-13844
ata	-13845
ull	-13846
فوق	-13847
یمن	-13848
‌اپ	-13849
▁0.	-13850
▁وث	-13851
خخخخ	-13852
دانه	-13853
پژوه	-13854
▁10.	-13855
▁قفق	-13856
▁لود	-13857
▁نون	-13858
▁گجت	-13859
▁یوگ	-13860
▁آیکن	-13861
▁امتي	-13862
▁باسن	-13863
▁حزبی	-13864
▁روید	-13865
▁عقب‌	-13866
▁علائ	-13867
▁پیشت	-13868
▁انقبا	-13869
▁تألیف	-13870
▁جاوید	-13871
▁رادار	-13872
▁كامپي	-13873
▁نزديک	-13874
▁التماس	-13875
▁پیشروی	-13876
▁اسیدهای	-13877
▁تعاملات	-13878
▁غیررسمی	-13879
▁معلولان	-13880
▁رایانامه	-13881
▁می‌خواند	-13882
▁دوازدهمین	-13883
▁کارگزاران	-13884
ib	-13885
َک	-13886
ual	-13887
ئیم	-13888
سرو	-13889
▁76	-13890
▁نذ	-13891
ment	-13892
امان	-13893
لاين	-13894
▁آرس	-13895
▁بلک	-13896
▁بنظ	-13897
توجهی	-13898
شمالی	-13899
▁ازین	-13900
▁جاست	-13901
▁حراج	-13902
▁عیدی	-13903
▁آبروی	-13904
▁باطری	-13905
▁تمایز	-13906
▁كاملا	-13907
▁مرادی	-13908
▁مراکش	-13909
▁مسؤول	-13910
▁معابر	-13911
▁مناظر	-13912
▁هیوند	-13913
▁چاوشی	-13914
▁آماده‌	-13915
▁اینجور	-13916
▁معادله	-13917
▁ناوبری	-13918
▁کاکتوس	-13919
▁احترامی	-13920
▁سلبریتی	-13921
▁فیلم‌ها	-13922
▁اقامتگاه	-13923
▁مي‌توانند	-13924
ET	-13925
ory	-13926
برم	-13927
زون	-13928
هار	-13929
وقع	-13930
پدر	-13931
▁(6	-13932
اعات	-13933
▁رعد	-13934
▁طاق	-13935
▁هیت	-13936
▁آمپر	-13937
▁ارام	-13938
▁ارضا	-13939
▁اسرع	-13940
▁حفره	-13941
▁خوش‌	-13942
▁رشید	-13943
▁زمره	-13944
▁سنتر	-13945
▁سورس	-13946
▁سینم	-13947
▁لطیف	-13948
▁نبین	-13949
▁واست	-13950
▁امینی	-13951
▁خواری	-13952
▁دمنوش	-13953
▁شفاهی	-13954
▁شونده	-13955
▁مقتول	-13956
▁مقرون	-13957
▁مقطعی	-13958
▁میرسه	-13959
▁کپسول	-13960
وزیسیون	-13961
▁اختصار	-13962
▁اصولاً	-13963
▁براحتی	-13964
▁بیش‌تر	-13965
▁مزاحمت	-13966
▁ناامنی	-13967
▁ولیعهد	-13968
▁استودیو	-13969
▁اکسیدان	-13970
▁جریانات	-13971
▁دستشویی	-13972
▁نصرالله	-13973
▁نهادینه	-13974
▁پاسارگاد	-13975
▁روشنفکران	-13976
aw	-13977
ذل	-13978
۸۸	-13979
▁z	-13980
ابن	-13981
وزن	-13982
▁عت	-13983
▁وش	-13984
لاند	-13985
کرون	-13986
▁Att	-13987
▁شتم	-13988
تماعی	-13989
یرانی	-13990
▁اولش	-13991
▁زایی	-13992
▁سکول	-13993
▁شدنی	-13994
▁مستر	-13995
▁کره‌	-13996
▁کندی	-13997
▁گرین	-13998
▁اصابت	-13999
▁مدفوع	-14000
▁مفیدی	-14001
▁مقتدر	-14002
▁انگليس	-14003
▁منظومه	-14004
▁افتادگی	-14005
▁فراهانی	-14006
▁میلیمتر	-14007
55	-14008
ck	-14009
fa	-14010
هل	-14011
خال	-14012
شنا	-14013
▁2،	-14014
▁۵٫	-14015
لیمی	-14016
▁سلف	-14017
▁لخت	-14018
▁نیج	-14019
▁کتی	-14020
▁یحی	-14021
گویید	-14022
▁2009	-14023
▁ابیا	-14024
▁بیتی	-14025
▁ريشه	-14026
▁سفال	-14027
▁می‌ب	-14028
▁هائی	-14029
▁کبری	-14030
▁گریم	-14031
▁ارمنی	-14032
▁توازن	-14033
▁حشرات	-14034
▁دویست	-14035
▁فروخت	-14036
▁لیاقت	-14037
▁مثابه	-14038
▁نخورد	-14039
▁منچستر	-14040
▁واحدها	-14041
▁آزادانه	-14042
▁انتحاری	-14043
▁اینچنین	-14044
▁جانوران	-14045
▁حمیدرضا	-14046
▁صمیمانه	-14047
▁دادستانی	-14048
▁بررسی‌های	-14049
▁فوتبالیست	-14050
▁تصویربرداری	-14051
عو	-14052
/20	-14053
بيل	-14054
شره	-14055
ِین	-14056
یرو	-14057
آمدی	-14058
بودن	-14059
راجی	-14060
‌سال	-14061
▁DNA	-14062
▁اوق	-14063
▁سست	-14064
▁شوت	-14065
همراه	-14066
▁اوری	-14067
▁خلیل	-14068
▁روزى	-14069
▁سيما	-14070
▁نوبه	-14071
▁نگین	-14072
▁چیزا	-14073
▁یوتی	-14074
گرافیک	-14075
▁المال	-14076
▁زنگنه	-14077
▁قوچان	-14078
▁منسجم	-14079
▁گشوده	-14080
▁کاراته	-14081
▁برندگان	-14082
▁واتس‌اپ	-14083
▁كامپيوتر	-14084
▁دیکتاتوری	-14085
▁سیاستگذاری	-14086
OR	-14087
ًا	-14088
ّب	-14089
‌:	-14090
جاز	-14091
▁اُ	-14092
/...	-14093
شکلک	-14094
مادر	-14095
▁ایش	-14096
▁دکل	-14097
▁لگن	-14098
▁کاک	-14099
درصدی	-14100
سازند	-14101
▁اعطا	-14102
▁براق	-14103
▁جامه	-14104
▁زاگر	-14105
▁شبيه	-14106
▁ملحق	-14107
آفرینی	-14108
الزمان	-14109
ناپذیر	-14110
پردازی	-14111
▁آنزیم	-14112
▁برهنه	-14113
▁توجّه	-14114
▁می‌کش	-14115
▁نیاید	-14116
▁بسزایی	-14117
▁تفکرات	-14118
▁خشمگین	-14119
▁نمی‌شد	-14120
▁کماکان	-14121
▁رجیستری	-14122
▁میگیرند	-14123
▁نيازمند	-14124
▁روزافزون	-14125
▁توافقنامه	-14126
▁کتابخوانی	-14127
▁داستان‌های	-14128
▁……	-14129
شیعه	-14130
ماید	-14131
ناوب	-14132
‌دهی	-14133
▁۲۵۰	-14134
اسيون	-14135
▁بشدت	-14136
▁دبير	-14137
▁دسکت	-14138
▁المثل	-14139
▁اولاً	-14140
▁جابجا	-14141
▁سوئیچ	-14142
▁کابین	-14143
▁گرسنه	-14144
▁امتناع	-14145
▁بولتون	-14146
!!!!!!!!	-14147
▁دربارهٔ	-14148
▁موقعیتی	-14149
‌»	-14150
ائن	-14151
سوی	-14152
ضوع	-14153
لیظ	-14154
‌پی	-14155
▁05	-14156
ایست	-14157
باتی	-14158
بیاء	-14159
جاست	-14160
واحد	-14161
چوبه	-14162
یزیم	-14163
▁بحر	-14164
▁عزل	-14165
▁فیش	-14166
▁کین	-14167
▁بکنه	-14168
▁رویت	-14169
▁فرهی	-14170
▁مستث	-14171
▁معنى	-14172
▁آبهای	-14173
▁آوریم	-14174
▁اشكال	-14175
▁اقسام	-14176
▁تحریر	-14177
▁سیاهی	-14178
▁گستره	-14179
▁آپارات	-14180
▁مهم‌تر	-14181
▁مونتاژ	-14182
▁کالایی	-14183
▁فرمانرو	-14184
▁كنندگان	-14185
▁هم‌چنین	-14186
▁هورمونی	-14187
▁گروه‌ها	-14188
▁می‌توانست	-14189
▁کارآفرینان	-14190
47	-14191
ick	-14192
اکم	-14193
حاد	-14194
آوري	-14195
جربه	-14196
دکتر	-14197
طلوب	-14198
▁جهر	-14199
▁خیل	-14200
▁شیط	-14201
▁پکن	-14202
خودرو	-14203
▁خوبم	-14204
▁صدقه	-14205
▁صفرا	-14206
▁عماد	-14207
▁نهنگ	-14208
▁اسپرت	-14209
▁تغذيه	-14210
▁فردای	-14211
▁هنجار	-14212
▁پرکار	-14213
▁آشامید	-14214
▁اصلاحی	-14215
▁الکترو	-14216
▁خصوصاً	-14217
▁لحظاتی	-14218
▁نامحرم	-14219
▁برایمان	-14220
▁مهندسین	-14221
▁همگرایی	-14222
▁نمیتواند	-14223
▁کارفرمای	-14224
▁سرویس‌های	-14225
▁می‌گذارند	-14226
(1)	-14227
ool	-14228
جمع	-14229
ياء	-14230
پند	-14231
▁62	-14232
مورد	-14233
موفق	-14234
▁تجم	-14235
▁جدي	-14236
▁قاف	-14237
▁مسج	-14238
▁التح	-14239
▁حلول	-14240
▁عقاب	-14241
▁قدمی	-14242
▁لطمه	-14243
▁ماهي	-14244
▁ندان	-14245
افزایش	-14246
▁اتلاف	-14247
▁تهديد	-14248
▁توزيع	-14249
▁درواز	-14250
▁مجاهد	-14251
▁موکول	-14252
▁نشستی	-14253
▁همینه	-14254
▁target	-14255
▁آستارا	-14256
▁ابریشم	-14257
▁افزاید	-14258
▁براشون	-14259
▁برگردد	-14260
▁دستبند	-14261
▁طرحهای	-14262
▁ناگزیر	-14263
▁دانمارک	-14264
▁اورانیوم	-14265
co	-14266
yd	-14267
ign	-14268
یتو	-14269
‌فر	-14270
▁حن	-14271
▁فَ	-14272
اسبی	-14273
اشتن	-14274
توسط	-14275
ظهور	-14276
▁(8)	-14277
▁180	-14278
▁خفه	-14279
▁گلب	-14280
▁1379	-14281
▁رباط	-14282
▁واین	-14283
▁یونی	-14284
ارتباط	-14285
▁بازرس	-14286
▁بشقاب	-14287
▁بودنش	-14288
▁دهمین	-14289
▁زمزمه	-14290
▁ضروري	-14291
▁فولکس	-14292
▁متفکر	-14293
▁محلات	-14294
▁مناقص	-14295
▁ناساز	-14296
▁همگام	-14297
▁چندتا	-14298
▁اشغالی	-14299
▁الحسین	-14300
▁اینهمه	-14301
▁تکالیف	-14302
▁ردیابی	-14303
▁نیافته	-14304
▁پلاسکو	-14305
▁به‌خاطر	-14306
▁فارغ‌ال	-14307
▁كشاورزي	-14308
▁نزدیکان	-14309
▁مگاپیکسلی	-14310
▁کاریکاتور	-14311
▁امیرالمومنین	-14312
8.	-14313
تز	-14314
عر	-14315
بیح	-14316
صاد	-14317
▁61	-14318
▁هت	-14319
▁باج	-14320
▁دهن	-14321
▁محد	-14322
ایندی	-14323
▁آدام	-14324
▁جدال	-14325
▁دعوی	-14326
▁عَلَ	-14327
▁فازی	-14328
▁پشتي	-14329
▁اذهان	-14330
▁تداعی	-14331
▁دخانی	-14332
▁زامبی	-14333
▁شکوهی	-14334
▁مطالع	-14335
▁منظره	-14336
▁پسرها	-14337
▁اسپورت	-14338
▁بستگان	-14339
▁شیطانی	-14340
▁مولکول	-14341
▁نظراتی	-14342
▁يكشنبه	-14343
▁استنباط	-14344
▁دولت‌ها	-14345
▁استقلالی	-14346
▁تاجیکستان	-14347
▁نتوانستند	-14348
▁e	-14349
ان‌	-14350
اير	-14351
سبز	-14352
عيف	-14353
مرگ	-14354
▁9.	-14355
▁جت	-14356
▁طه	-14357
▁ظل	-14358
▁۴۳	-14359
▁۸۹	-14360
مطال	-14361
کلام	-14362
▁Oct	-14363
▁جهل	-14364
▁خلي	-14365
میزان	-14366
پوليس	-14367
▁اشیا	-14368
▁ببرم	-14369
▁ترشی	-14370
▁زدگی	-14371
▁قوام	-14372
▁كالا	-14373
▁۲۰۰۸	-14374
▁اسکات	-14375
▁بهائی	-14376
▁بيمار	-14377
▁صورتش	-14378
▁متذکر	-14379
▁مسافت	-14380
▁نیامد	-14381
▁پلیمر	-14382
▁اجرائی	-14383
▁خبرساز	-14384
▁رايگان	-14385
▁شستشوی	-14386
▁مطلوبی	-14387
▁میکروب	-14388
▁نخواهم	-14389
▁نگیرید	-14390
؟؟؟؟؟؟؟؟	-14391
چهارشنبه	-14392
▁ارگانیک	-14393
▁ماهنامه	-14394
▁مغناطیسی	-14395
./	-14396
AC	-14397
▁‍	-14398
ساد	-14399
يته	-14400
▁اِ	-14401
▁گا	-14402
قیقه	-14403
مصرف	-14404
▁زان	-14405
▁ننگ	-14406
خواهم	-14407
دارند	-14408
▁آنهم	-14409
▁تیزه	-14410
▁زدیم	-14411
▁عاری	-14412
▁لوگو	-14413
▁لیون	-14414
▁مداد	-14415
▁نابر	-14416
شمندان	-14417
▁انزلی	-14418
▁اوصاف	-14419
▁برجای	-14420
▁زدگان	-14421
▁مديره	-14422
▁مسواک	-14423
▁مشتمل	-14424
▁ملودی	-14425
▁ناکام	-14426
▁ایمیلی	-14427
▁برداري	-14428
▁شکستگی	-14429
▁طولاني	-14430
▁كاملاً	-14431
▁مراسمی	-14432
▁مستحکم	-14433
▁کنترلی	-14434
▁یوتیوب	-14435
▁دوستانم	-14436
▁رساندند	-14437
▁عملکردی	-14438
/9	-14439
out	-14440
▁گپ	-14441
­­­­	-14442
زهرا	-14443
▁شیم	-14444
برچسب	-14445
تفاوت	-14446
▁آيين	-14447
▁اطلس	-14448
▁بحثی	-14449
▁بكار	-14450
▁خوند	-14451
▁ملیت	-14452
▁هستي	-14453
▁کشند	-14454
▁‌های	-14455
▁بعداً	-14456
▁جالبه	-14457
▁جزوات	-14458
▁جیمیل	-14459
▁رضايت	-14460
▁رنگین	-14461
▁مجاری	-14462
▁مداری	-14463
▁اسکناس	-14464
▁بشویید	-14465
▁ماليات	-14466
▁پتاسیم	-14467
▁کریسمس	-14468
▁برکناری	-14469
▁به‌خصوص	-14470
▁فرمایند	-14471
▁ميليارد	-14472
▁هیوندای	-14473
▁فایل‌های	-14474
▁می‌گفتند	-14475
▁ناهنجاری	-14476
▁سانتیگراد	-14477
حج	-14478
عید	-14479
▁چغ	-14480
▁۵۶	-14481
رئیس	-14482
فیقی	-14483
ماني	-14484
▁حفر	-14485
▁قمر	-14486
▁كلم	-14487
▁مضا	-14488
▁مغل	-14489
▁کاد	-14490
▁آملی	-14491
▁آگهي	-14492
▁شلاق	-14493
▁قبرس	-14494
هایشان	-14495
▁جلالی	-14496
▁جنايت	-14497
▁دعوای	-14498
▁عاشقی	-14499
▁منحنی	-14500
▁گزیده	-14501
▁آلودگي	-14502
▁خويشتن	-14503
▁شانزده	-14504
▁شیردهی	-14505
▁هنگامي	-14506
▁پنهانی	-14507
▁چیدمان	-14508
▁کارلوس	-14509
▁نيازهاي	-14510
▁مسافربری	-14511
▁بازگرداندن	-14512
++	-14513
nd	-14514
sl	-14515
بچه	-14516
جال	-14517
داً	-14518
سند	-14519
▁.(	-14520
▁PS	-14521
يجان	-14522
کارت	-14523
▁(9)	-14524
▁320	-14525
▁مخف	-14526
▁منب	-14527
blank	-14528
ه‌ساز	-14529
▁تأمل	-14530
▁دوقل	-14531
▁سوان	-14532
▁سیری	-14533
▁قبله	-14534
▁نبوت	-14535
▁هيات	-14536
▁تقاطع	-14537
▁تمسخر	-14538
▁خودرا	-14539
▁دخترا	-14540
▁منزلت	-14541
▁ناحيه	-14542
▁ندادن	-14543
▁پناهی	-14544
▁کنایه	-14545
▁ارجمند	-14546
▁جنسیتی	-14547
▁دسکتاپ	-14548
▁ناراضی	-14549
▁نیجریه	-14550
▁کافئین	-14551
▁کرواسی	-14552
▁دستکاری	-14553
▁هوشیاری	-14554
▁Creative	-14555
▁اينترنتي	-14556
▁سیاستهای	-14557
▁مارکتینگ	-14558
▁پروژه‌ها	-14559
▁اصلاح‌طلب	-14560
▁بيمارستان	-14561
▁راهبردهای	-14562
ID	-14563
ies	-14564
حرف	-14565
آهنگ	-14566
ادره	-14567
زنان	-14568
▁کلر	-14569
Press	-14570
شیفته	-14571
هاشون	-14572
واقعا	-14573
▁استغ	-14574
▁اشار	-14575
▁خامه	-14576
▁خفیف	-14577
▁اخوان	-14578
▁بشوند	-14579
▁تسليم	-14580
▁توالت	-14581
▁راديو	-14582
▁ملوان	-14583
▁وسائل	-14584
▁کرده‌	-14585
▁بندهای	-14586
▁توریست	-14587
▁خواهيد	-14588
▁زلزله‌	-14589
▁منیزیم	-14590
▁ميتوان	-14591
▁کازرون	-14592
▁تماشاگر	-14593
▁گذرنامه	-14594
▁آشامیدنی	-14595
▁موشک‌های	-14596
▁غیرمستقیم	-14597
▁رییس‌جمهور	-14598
روه	-14599
شنی	-14600
یرا	-14601
▁2,	-14602
امين	-14603
سیدن	-14604
مرکز	-14605
مهند	-14606
والی	-14607
وانت	-14608
▁بهی	-14609
▁جود	-14610
▁دیز	-14611
▁روا	-14612
▁طرق	-14613
▁مشم	-14614
ابراه	-14615
ه‌بان	-14616
وردان	-14617
▁بدنش	-14618
▁جوهر	-14619
▁زیرد	-14620
▁صداي	-14621
▁مثلث	-14622
▁میکس	-14623
▁نیکل	-14624
▁يعنى	-14625
ادیمیر	-14626
▁آوريل	-14627
▁اجراء	-14628
▁افطار	-14629
▁جنابع	-14630
▁نصیحت	-14631
▁پانصد	-14632
▁کاشمر	-14633
▁بهمراه	-14634
▁تیتراژ	-14635
▁دماوند	-14636
▁ماهوار	-14637
▁کیبورد	-14638
▁گریبان	-14639
▁آبرسانی	-14640
▁تازه‌ای	-14641
▁شاهنامه	-14642
▁کلینتون	-14643
▁اجتماعات	-14644
▁بازگردان	-14645
▁بیگانگان	-14646
▁پناهندگی	-14647
▁پیام‌رسان	-14648
RM	-14649
:15	-14650
ثبت	-14651
يشي	-14652
َهُ	-14653
like	-14654
ختگی	-14655
كاری	-14656
‌گرا	-14657
▁(20	-14658
▁تخل	-14659
▁۷۰۰	-14660
تحقیق	-14661
▁آجیل	-14662
▁احتي	-14663
▁حیدر	-14664
▁روزي	-14665
▁عابد	-14666
▁عبدی	-14667
▁ميوه	-14668
▁کانت	-14669
▁آگاهي	-14670
▁خودمو	-14671
▁فشاری	-14672
▁مضاعف	-14673
▁میگرن	-14674
▁تشریحی	-14675
▁سالمند	-14676
▁سناتور	-14677
▁شنوایی	-14678
▁فعالین	-14679
▁مارکسی	-14680
▁کلمبیا	-14681
▁1395/04	-14682
▁انضباطی	-14683
▁تخم‌مرغ	-14684
▁دمکراسی	-14685
▁سازوکار	-14686
▁میرحسین	-14687
▁نتونستم	-14688
AS	-14689
ضد	-14690
ايى	-14691
گين	-14692
اشون	-14693
گناه	-14694
▁And	-14695
▁بیس	-14696
▁جبه	-14697
▁ريز	-14698
▁یهو	-14699
خوابی	-14700
▁بفرو	-14701
▁ترنس	-14702
▁دستي	-14703
▁شروط	-14704
▁مزاج	-14705
▁کامپ	-14706
▁گامی	-14707
▁بیروت	-14708
▁تعبير	-14709
▁دلايل	-14710
▁قفقاز	-14711
▁وبگاه	-14712
▁کلیوی	-14713
▁گروهي	-14714
▁آمارها	-14715
▁بابایی	-14716
▁بجنورد	-14717
▁تورنتو	-14718
▁سرزمين	-14719
▁سیلندر	-14720
▁منوچهر	-14721
▁نمیکند	-14722
▁پسرانه	-14723
ribution	-14724
▁ناآرامی	-14725
▁نامطلوب	-14726
▁شیوه‌های	-14727
▁اقیانوسیه	-14728
▁بهره‌گیری	-14729
▁نمونه‌های	-14730
▁فناوری‌های	-14731
▁نمی‌توانید	-14732
Ph	-14733
قب	-14734
="_	-14735
قلب	-14736
لاش	-14737
▁دپ	-14738
بالا	-14739
حضور	-14740
حقوق	-14741
ورزش	-14742
ورها	-14743
▁آب‌	-14744
erver	-14745
محصول	-14746
ه‌تان	-14747
‌سوزی	-14748
‌پلاس	-14749
▁آهنی	-14750
▁افکت	-14751
▁بصره	-14752
▁حسنی	-14753
▁راحل	-14754
▁عفاف	-14755
▁مریخ	-14756
▁معلو	-14757
▁نامو	-14758
▁نوبل	-14759
▁بفروش	-14760
▁تحريم	-14761
▁تكرار	-14762
▁ديگرى	-14763
▁زاگرس	-14764
▁شجاعی	-14765
▁طریقه	-14766
▁محمّد	-14767
▁نعمتی	-14768
▁هرحال	-14769
▁گلایه	-14770
▁برکنار	-14771
▁زنجبیل	-14772
▁ساسانی	-14773
▁ابزارها	-14774
▁غافلگیر	-14775
▁فیلمهای	-14776
▁معتادان	-14777
▁پذيرفته	-14778
▁کریستال	-14779
▁مهارتهای	-14780
▁شهریورماه	-14781
/09	-14782
زوم	-14783
‌اي	-14784
‌با	-14785
‌دی	-14786
▁07	-14787
▁۴۹	-14788
ردار	-14789
يتان	-14790
يلات	-14791
کوبی	-14792
▁اتل	-14793
▁سما	-14794
▁لکن	-14795
آبادی	-14796
گرفتن	-14797
‌کردن	-14798
▁فلسف	-14799
▁مصمم	-14800
▁میله	-14801
▁پزشك	-14802
مندانه	-14803
گینامه	-14804
▁آنجلس	-14805
▁اهل‌ب	-14806
▁برآمد	-14807
▁تمجید	-14808
▁دختره	-14809
▁ربیعی	-14810
▁كانون	-14811
▁مصاحب	-14812
▁معذرت	-14813
▁هدفون	-14814
▁کنارش	-14815
▁سیگاری	-14816
▁فیلترینگ	-14817
▁می‌بینند	-14818
▁پرسپوليس	-14819
▁بنیانگذار	-14820
MD	-14821
۸۶	-14822
سرم	-14823
▁رك	-14824
▁آمر	-14825
▁آمل	-14826
▁سکو	-14827
▁صنف	-14828
▁قمی	-14829
▁پشم	-14830
چگونه	-14831
▁2019	-14832
▁اهرم	-14833
▁خاست	-14834
▁صیغه	-14835
▁ملائ	-14836
▁ناگو	-14837
▁نگرد	-14838
▁گلاب	-14839
ه‌نامه	-14840
‌الله‌	-14841
▁بایرن	-14842
▁بیاند	-14843
▁درجات	-14844
▁سرپوش	-14845
▁عقيده	-14846
▁محتمل	-14847
استخدام	-14848
▁امتياز	-14849
▁بخوریم	-14850
▁برگشته	-14851
▁حبوبات	-14852
▁مسافری	-14853
▁آلاینده	-14854
▁تجهيزات	-14855
▁لباس‌های	-14856
▁نسخه‌های	-14857
▁پیمانکار	-14858
44	-14859
9]	-14860
ix	-14861
‌ع	-14862
بنی	-14863
▁جزئ	-14864
▁قهو	-14865
▁ميك	-14866
▁ژله	-14867
/.../	-14868
اریان	-14869
گذشته	-14870
▁ارور	-14871
▁حمزه	-14872
▁شیری	-14873
▁غلیظ	-14874
▁فورا	-14875
▁لاور	-14876
▁ناله	-14877
فرهنگی	-14878
▁اداري	-14879
▁افكار	-14880
▁انزال	-14881
▁جنایی	-14882
▁ذخيره	-14883
▁سوزنی	-14884
▁عاطفه	-14885
▁فردوس	-14886
▁لیتری	-14887
▁نخوان	-14888
▁پديده	-14889
▁کاران	-14890
▁کارتن	-14891
▁بازبين	-14892
▁خیابون	-14893
▁علیپور	-14894
▁فیلسوف	-14895
▁می‌دید	-14896
▁استانها	-14897
▁روزهایی	-14898
▁سرگردان	-14899
▁شناسايي	-14900
▁موتورسی	-14901
▁نهایتاً	-14902
▁پارامتر	-14903
▁وزنه‌برداری	-14904
3،	-14905
6-	-14906
SL	-14907
‌ا	-14908
روغ	-14909
‌زد	-14910
▁۸۴	-14911
سواد	-14912
کنار	-14913
کنشی	-14914
▁زدی	-14915
▁مفر	-14916
▁هان	-14917
▁پین	-14918
‌نویس	-14919
▁آوري	-14920
▁برسم	-14921
▁برنا	-14922
▁تأسی	-14923
▁لانه	-14924
▁میزد	-14925
▁هجرت	-14926
▁یعنى	-14927
راجویی	-14928
‌الدین	-14929
▁امپری	-14930
▁تداخل	-14931
▁تقریب	-14932
▁سانچی	-14933
▁هاتون	-14934
▁ویزیت	-14935
▁جادویی	-14936
▁دیالوگ	-14937
▁زيبايي	-14938
▁عقلانی	-14939
▁فهمیده	-14940
▁میادین	-14941
▁ندادند	-14942
▁نورانی	-14943
▁هنگامى	-14944
********	-14945
▁Commons	-14946
▁آهنگساز	-14947
▁دخانیات	-14948
▁کنسولگری	-14949
▁یادداشتی	-14950
▁امکان‌پذیر	-14951
▁Attribution	-14952
▁بازبيني‌شده	-14953
خم	-14954
٫۱	-14955
۷۰	-14956
▁صص	-14957
▁لج	-14958
able	-14959
جلسه	-14960
▁آوا	-14961
▁توي	-14962
▁لوس	-14963
▁پاف	-14964
▁کوی	-14965
مدرضا	-14966
ولیسم	-14967
▁برزخ	-14968
▁رواد	-14969
▁طیور	-14970
▁مشرک	-14971
▁مغای	-14972
▁نخود	-14973
▁کبدی	-14974
▁گنده	-14975
▁الکلی	-14976
▁دریان	-14977
▁دنياي	-14978
▁مطلقه	-14979
▁معتدل	-14980
▁معینی	-14981
▁مي‌شد	-14982
▁نگاهش	-14983
▁وزیری	-14984
▁انحلال	-14985
▁جاهایی	-14986
▁دستخوش	-14987
▁فنلاند	-14988
▁موجبات	-14989
▁نخورده	-14990
▁نمیکرد	-14991
▁هایمان	-14992
▁چهارده	-14993
▁آرزوهای	-14994
▁اثرگذار	-14995
▁افتخارات	-14996
▁بزرگترين	-14997
▁كتابخانه	-14998
▁بیانیه‌ای	-14999
ok	-15000
‏‌	-15001
500	-15002
ایى	-15003
ساس	-15004
ورس	-15005
▁دق	-15006
▁رغ	-15007
آغاز	-15008
شیوه	-15009
طرفه	-15010
نژاد	-15011
کینگ	-15012
▁Con	-15013
▁آنج	-15014
▁تشن	-15015
▁خدی	-15016
▁ذیر	-15017
▁صید	-15018
▁متب	-15019
▁مجا	-15020
▁گار	-15021
خوابه	-15022
درمان	-15023
▁اكرم	-15024
▁ديدن	-15025
▁رکعت	-15026
▁شبان	-15027
▁مدیا	-15028
▁منفي	-15029
▁مولد	-15030
▁میفر	-15031
▁وظیف	-15032
▁۲۰۰۶	-15033
▁۲۰۰۹	-15034
افزاید	-15035
ــــــ	-15036
▁باهنر	-15037
▁بلایی	-15038
▁بلوتو	-15039
▁تراری	-15040
▁جدیدش	-15041
▁حضورش	-15042
▁خریده	-15043
▁رسول‌	-15044
▁مولوی	-15045
▁نشستم	-15046
▁همسری	-15047
▁افسرده	-15048
▁شادمهر	-15049
▁سلولهای	-15050
▁مشترکین	-15051
▁ارزشمندی	-15052
▁پنج‌شنبه	-15053
▁خودارضایی	-15054
▁پارامترهای	-15055
CT	-15056
ys	-15057
َي	-15058
box	-15059
und	-15060
ونن	-15061
لاحی	-15062
وندم	-15063
▁بوي	-15064
▁لار	-15065
▁لان	-15066
▁نوه	-15067
Share	-15068
رفاکس	-15069
نتاین	-15070
پروژه	-15071
پوزال	-15072
▁تسمه	-15073
▁شيمي	-15074
▁لرزش	-15075
▁وارث	-15076
▁پلان	-15077
▁[...]	-15078
▁اجزاء	-15079
▁اجسام	-15080
▁تحويل	-15081
▁تراشه	-15082
▁خانمی	-15083
▁داعشی	-15084
▁رانده	-15085
▁صعودی	-15086
▁مدتها	-15087
▁مغلوب	-15088
▁نامند	-15089
▁هجدهم	-15090
▁پروین	-15091
▁انسداد	-15092
▁باسلام	-15093
▁بخورند	-15094
▁بهسازی	-15095
▁خویشتن	-15096
▁دلتنگی	-15097
▁مامانم	-15098
▁معلومه	-15099
▁مینویس	-15100
▁انگليسي	-15101
▁نامبرده	-15102
▁نام‌های	-15103
▁هندوانه	-15104
▁پست‌های	-15105
▁تجدیدنظر	-15106
▁فرزندانش	-15107
▁نمی‌کنیم	-15108
▁وعده‌های	-15109
▁پرستاران	-15110
▁ماجراجویی	-15111
▁علاقه‌مندان	-15112
wit	-15113
بها	-15114
بکس	-15115
بیک	-15116
لوک	-15117
کشن	-15118
کیو	-15119
▁4)	-15120
▁ph	-15121
▁پف	-15122
▁Feb	-15123
▁فان	-15124
جامعه	-15125
شاوند	-15126
نمايد	-15127
▁ابدی	-15128
▁خالد	-15129
▁دامی	-15130
▁سرای	-15131
▁غیاب	-15132
▁نجوم	-15133
▁نخبه	-15134
▁چارت	-15135
يلومتر	-15136
▁اعماق	-15137
▁اوقاف	-15138
▁تصدیق	-15139
▁تعزیر	-15140
▁ذیربط	-15141
▁سرفصل	-15142
▁مراتع	-15143
▁معناى	-15144
▁آقایون	-15145
▁انقباض	-15146
▁بسازیم	-15147
▁بگذریم	-15148
▁مغایرت	-15149
▁هوشیار	-15150
▁پاشایی	-15151
▁پاییزی	-15152
▁پروازی	-15153
▁یونسکو	-15154
▁دبستانی	-15155
▁صربستان	-15156
▁بخش‌هایی	-15157
▁دیدارهای	-15158
▁مردادماه	-15159
▁کرده‌است	-15160
▁اپوزیسیون	-15161
ولي	-15162
▁:_	-15163
▁۵۲	-15164
▁۶۸	-15165
تیکی	-15166
مربع	-15167
‌‌ها	-15168
▁آبي	-15169
▁ب٫ظ	-15170
▁فرج	-15171
▁هرج	-15172
!!!!!	-15173
نمونه	-15174
▁تلفظ	-15175
▁كريم	-15176
▁لایق	-15177
▁مسكن	-15178
▁مشرف	-15179
▁اکتفا	-15180
▁جنیفر	-15181
▁سرسخت	-15182
▁صرفه‌	-15183
▁فرجام	-15184
▁پرستش	-15185
▁بخونید	-15186
▁بدهکار	-15187
▁بگيريد	-15188
▁بیوتیک	-15189
▁دلنشین	-15190
▁متفرقه	-15191
▁مواقعی	-15192
▁مي‌کند	-15193
▁میشناس	-15194
▁سازماني	-15195
▁بوده‌است	-15196
▁راهنماییم	-15197
طم	-15198
۹۴	-15199
نگي	-15200
‌جی	-15201
▁پچ	-15202
بهمن	-15203
خواد	-15204
خیال	-15205
قاسم	-15206
مدار	-15207
وازی	-15208
▁pro	-15209
▁جات	-15210
▁عوا	-15211
▁هرم	-15212
▁گان	-15213
انیوز	-15214
تعداد	-15215
زمینه	-15216
يسيون	-15217
▁الحر	-15218
▁بورژ	-15219
▁حرفا	-15220
▁خوشن	-15221
▁رسوب	-15222
▁سراز	-15223
▁سیکل	-15224
▁عصمت	-15225
▁عظيم	-15226
▁نیوم	-15227
▁ارسطو	-15228
▁افسری	-15229
▁افسوس	-15230
▁افلاط	-15231
▁برحسب	-15232
▁تریاک	-15233
▁دقایق	-15234
▁سرعتی	-15235
▁معيار	-15236
▁میدیم	-15237
▁پیانو	-15238
▁برفراز	-15239
▁عموماً	-15240
▁کریستی	-15241
……………………	-15242
▁انباشته	-15243
▁اطلاعاتي	-15244
▁داروسازی	-15245
▁سلاح‌های	-15246
▁محمدجواد	-15247
▁رایانه‌ای	-15248
▁سیدالشهدا	-15249
▁سیاست‌گذاری	-15250
؟"	-15251
۷۷	-15252
ایح	-15253
ثرت	-15254
غير	-15255
▁MB	-15256
▁۴۱	-15257
▁۵۸	-15258
▁۷۲	-15259
usic	-15260
لافی	-15261
‌رغم	-15262
▁انه	-15263
▁باف	-15264
▁خفن	-15265
مقاله	-15266
▁آیپد	-15267
▁بوسه	-15268
▁تونس	-15269
▁خداد	-15270
▁زیور	-15271
▁شکنی	-15272
▁ضمیم	-15273
▁لغزش	-15274
▁لقمه	-15275
نمایند	-15276
▁آفرين	-15277
▁آن‌که	-15278
▁ایده‌	-15279
▁بسنده	-15280
▁سیاوش	-15281
▁طاهری	-15282
▁مکالم	-15283
▁میبرد	-15284
▁کاستی	-15285
▁آفریده	-15286
▁ایران‌	-15287
▁اینبار	-15288
▁برآمده	-15289
▁خواهرم	-15290
▁داراست	-15291
▁كشورها	-15292
▁مجریان	-15293
▁مسیحیان	-15294
▁جنایتکار	-15295
▁WordPress	-15296
▁دوستانتان	-15297
58	-15298
FC	-15299
FT	-15300
طبق	-15301
پاش	-15302
کای	-15303
▁63	-15304
▁th	-15305
▁چو	-15306
سیلی	-15307
ونیم	-15308
وودی	-15309
▁موم	-15310
Alike	-15311
نگونه	-15312
▁آنات	-15313
▁استه	-15314
▁بوته	-15315
▁جارو	-15316
▁لاشه	-15317
▁معبد	-15318
▁میدی	-15319
▁نصیر	-15320
▁کوله	-15321
▁گلها	-15322
▁یاهو	-15323
▁آمیزش	-15324
▁اجابت	-15325
▁اکبری	-15326
▁تجديد	-15327
▁توانی	-15328
▁عتبات	-15329
▁لیستی	-15330
▁محتاج	-15331
▁منشاء	-15332
▁موفقی	-15333
▁نژادی	-15334
▁چنگال	-15335
▁استیکر	-15336
▁بمالید	-15337
▁خصوصیت	-15338
▁سایرین	-15339
▁سردبیر	-15340
▁فرزانه	-15341
▁مردانی	-15342
▁انحرافی	-15343
▁خوشایند	-15344
▁کتاب‌ها	-15345
▁شاخص‌های	-15346
▁مادربزرگ	-15347
▁می‌بایست	-15348
▁تازه‌ترین	-15349
▁پرونده‌های	-15350
ll	-15351
pe	-15352
te	-15353
esh	-15354
اعی	-15355
نرم	-15356
ونز	-15357
▁۵۳	-15358
▁۵۴	-15359
خانم	-15360
میرد	-15361
نگاه	-15362
گاري	-15363
▁350	-15364
▁Aug	-15365
▁دير	-15366
▁پلو	-15367
▁چتر	-15368
رداری	-15369
▁بخند	-15370
▁ریتم	-15371
▁قبلي	-15372
▁ازشون	-15373
▁البوم	-15374
▁توتال	-15375
▁جکسون	-15376
▁رساني	-15377
▁محسنی	-15378
▁مرتكب	-15379
▁هلاکت	-15380
▁پروری	-15381
▁آدم‌ها	-15382
▁آنارشی	-15383
▁برگشتم	-15384
▁بنوشید	-15385
▁بواسطه	-15386
▁تحصيلي	-15387
▁تقریبی	-15388
▁توربین	-15389
▁ویتنام	-15390
▁پادگان	-15391
▁یکپارچ	-15392
▁الكترون	-15393
▁معاونان	-15394
▁نتوانند	-15395
▁نمی‌آید	-15396
▁ویندوزی	-15397
▁پیاده‌روی	-15398
▁زیرساخت‌های	-15399
ly	-15400
َح	-15401
ّف	-15402
بیم	-15403
وسف	-15404
ئومی	-15405
بنای	-15406
مدیا	-15407
▁خصل	-15408
▁سرل	-15409
وسیله	-15410
▁رشوه	-15411
▁رومی	-15412
▁رویم	-15413
▁سپهر	-15414
▁صافی	-15415
▁وراث	-15416
▁پلیر	-15417
ازدواج	-15418
دوشنبه	-15419
▁اخرین	-15420
▁تابعه	-15421
▁ديوان	-15422
▁قشنگی	-15423
▁پستال	-15424
▁کشنده	-15425
▁ساعاتی	-15426
▁فرآيند	-15427
▁مرزبان	-15428
▁واکنشی	-15429
▁گنجینه	-15430
▁نوازنده	-15431
▁کودکانه	-15432
▁نمی‌دهند	-15433
▁فرهنگستان	-15434
دیش	-15435
ويق	-15436
‌گو	-15437
▁.‏	-15438
▁AP	-15439
▁۵۱	-15440
▁۷۶	-15441
orld	-15442
▁[2]	-15443
▁_--	-15444
▁اسی	-15445
▁رول	-15446
▁زره	-15447
▁طرد	-15448
▁لوک	-15449
▁مبد	-15450
اسانی	-15451
جهانی	-15452
مبانی	-15453
▁اجاز	-15454
▁بادم	-15455
▁حقیر	-15456
▁رقیه	-15457
▁نواب	-15458
▁آن‌چه	-15459
▁بارسا	-15460
▁تصريح	-15461
▁جوادی	-15462
▁دلیلش	-15463
▁رامبد	-15464
▁ساواک	-15465
▁فعالی	-15466
▁متاثر	-15467
▁منسوب	-15468
▁منصرف	-15469
▁ندهند	-15470
▁هامون	-15471
▁حفاظتی	-15472
▁ریچارد	-15473
▁شناختن	-15474
▁هولناک	-15475
▁پژوهشي	-15476
▁اهل‌بیت	-15477
▁بشناسیم	-15478
▁تبليغات	-15479
▁تندرستی	-15480
▁دوره‌ای	-15481
▁رادیکال	-15482
▁می‌بیند	-15483
▁می‌رسید	-15484
▁نمی‌کنم	-15485
▁هم‌زمان	-15486
▁توانبخشی	-15487
▁برمی‌گردد	-15488
,,	-15489
ave	-15490
▁۸۲	-15491
0000	-15492
جهان	-15493
رسون	-15494
ريزي	-15495
ورتر	-15496
▁Mag	-15497
▁الغ	-15498
▁درش	-15499
▁طیب	-15500
▁فاح	-15501
▁لنگ	-15502
▁يون	-15503
▁کمد	-15504
▁یعق	-15505
▁یور	-15506
اشتند	-15507
ه‌کار	-15508
ونیسم	-15509
پرورش	-15510
کفایی	-15511
▁آحاد	-15512
▁اسکو	-15513
▁ساقط	-15514
▁عملي	-15515
▁یانگ	-15516
▁آسیبی	-15517
▁بگذرد	-15518
▁سیلیک	-15519
▁مرغوب	-15520
▁منفجر	-15521
▁اونقدر	-15522
▁سیستم‌	-15523
▁عراقچی	-15524
▁محافظه	-15525
▁معماري	-15526
▁رنگ‌های	-15527
▁علی‌رغم	-15528
▁غیرممکن	-15529
▁میدونید	-15530
▁پیشخوان	-15531
▁نشده‌اید	-15532
▁زندگینامه	-15533
▁محیط‌زیست	-15534
▁مشهورترین	-15535
▁گوگل‌پلاس	-15536
▁نرم‌افزارهای	-15537
46	-15538
‌زا	-15539
▁//	-15540
▁چگ	-15541
ختند	-15542
رشته	-15543
نوبی	-15544
▁سیت	-15545
▁غیب	-15546
▁نهر	-15547
ایسنا	-15548
ریایی	-15549
کردند	-15550
▁اسپم	-15551
▁بنگر	-15552
▁جوار	-15553
▁عمرش	-15554
▁هنري	-15555
▁تحولی	-15556
▁خدیجه	-15557
▁دائما	-15558
▁زيارت	-15559
▁مرزها	-15560
▁پژوهی	-15561
▁آرتروز	-15562
▁آشنايي	-15563
▁آنلاين	-15564
▁دنبالش	-15565
▁عالمان	-15566
▁مشاركت	-15567
▁ابراهيم	-15568
▁ارزشهای	-15569
▁بالستیک	-15570
▁جاده‌ای	-15571
▁هدفمندی	-15572
▁پناهگاه	-15573
▁چهارراه	-15574
▁نویسندگی	-15575
▁ناخوشایند	-15576
48	-15577
han	-15578
ائر	-15579
غرب	-15580
یعی	-15581
برخی	-15582
▁خلف	-15583
▁قرب	-15584
▁نشت	-15585
▁اونی	-15586
▁بلور	-15587
▁خداي	-15588
▁سبزه	-15589
▁شیفت	-15590
▁طعمی	-15591
▁نصرت	-15592
▁بخوبی	-15593
▁بخوره	-15594
▁برکات	-15595
▁بکشند	-15596
▁تشبیه	-15597
▁تعارف	-15598
▁جداول	-15599
▁سوريه	-15600
▁ضمناً	-15601
▁ورزشي	-15602
▁وسايل	-15603
▁آغازین	-15604
▁بسازند	-15605
▁به‌جای	-15606
▁بورسیه	-15607
▁بپرهیز	-15608
▁خاموشی	-15609
▁دورهمی	-15610
▁سازهای	-15611
▁متاسفم	-15612
▁مجاورت	-15613
▁مدت‌ها	-15614
▁Windows	-15615
▁انتظاری	-15616
▁بازارها	-15617
▁زردچوبه	-15618
▁نمیتونه	-15619
▁شاهنشاهی	-15620
▁قسمت‌های	-15621
▁آخرین‌بار	-15622
▁مقاله‌های	-15623
7.	-15624
سس	-15625
جه‌	-15626
شام	-15627
نوی	-15628
چه‌	-15629
▁69	-15630
آلات	-15631
حانه	-15632
ندگي	-15633
▁قوي	-15634
▁پیل	-15635
▁کدو	-15636
▁یائ	-15637
انوند	-15638
▁ازآن	-15639
▁اکسل	-15640
▁بلات	-15641
▁جابه	-15642
▁سدیم	-15643
▁عقده	-15644
▁قوطی	-15645
▁میرن	-15646
▁کرزی	-15647
خداوند	-15648
▁آدمها	-15649
▁بدانم	-15650
▁ترخیص	-15651
▁تندیس	-15652
▁نشدنی	-15653
▁پیاپی	-15654
▁اتوبان	-15655
▁امکانش	-15656
▁دستوری	-15657
▁مورینیو	-15658
▁رویکردهای	-15659
IV	-15660
ئب	-15661
ote	-15662
برا	-15663
وشت	-15664
▁۸۶	-15665
line	-15666
بعدی	-15667
ورود	-15668
وزان	-15669
▁بسم	-15670
▁تدب	-15671
▁حتم	-15672
▁شات	-15673
▁غضب	-15674
▁ژرف	-15675
جنوبی	-15676
معمول	-15677
▁بشیم	-15678
▁تیکه	-15679
▁صخره	-15680
▁مجسم	-15681
▁هرجا	-15682
▁چشمم	-15683
▁۲۰۱۹	-15684
دستگاه	-15685
▁آزاری	-15686
▁آسوده	-15687
▁انفاق	-15688
▁شماها	-15689
▁صابون	-15690
▁لزوما	-15691
▁متوسل	-15692
▁مصباح	-15693
▁منتسب	-15694
▁نادان	-15695
▁ادوارد	-15696
▁اقلیمی	-15697
▁جزئيات	-15698
▁عقیدتی	-15699
▁مزایده	-15700
▁مطمئنم	-15701
▁معارفه	-15702
▁همدانی	-15703
▁پيروزي	-15704
▁پیداست	-15705
▁اجتماعى	-15706
▁بازی‌ها	-15707
▁راندمان	-15708
▁سوگواری	-15709
▁هیدروژن	-15710
▁یادگاری	-15711
▁فایرفاکس	-15712
▁بازماندگان	-15713
سوس	-15714
سول	-15715
وشا	-15716
انگی	-15717
بولی	-15718
بیلی	-15719
فارس	-15720
پیشه	-15721
▁غوا	-15722
▁هما	-15723
▁یقه	-15724
خورده	-15725
▁آفیس	-15726
▁تعدد	-15727
▁تفكر	-15728
▁حصار	-15729
▁خدمه	-15730
▁ریست	-15731
▁شاهی	-15732
▁فرجه	-15733
▁فلاس	-15734
▁قيام	-15735
▁لمسی	-15736
داستان	-15737
▁Inter	-15738
▁آقایی	-15739
▁ادکلن	-15740
▁استار	-15741
▁تاييد	-15742
▁دزدان	-15743
▁شرافت	-15744
▁ضمیمه	-15745
▁كاربر	-15746
▁مشروح	-15747
▁مفصلی	-15748
▁میاره	-15749
▁ناموس	-15750
▁نهايي	-15751
▁هارون	-15752
▁جماران	-15753
▁دوره‌ی	-15754
▁مصادره	-15755
▁ممنوعه	-15756
▁گیربکس	-15757
▁یادبود	-15758
▁انشالله	-15759
▁بسپارید	-15760
▁سودآوری	-15761
▁عبدالرح	-15762
▁مسؤولان	-15763
▁ناپذیری	-15764
▁ولنتاین	-15765
▁کودکانی	-15766
▁گنجانده	-15767
▁جنبه‌های	-15768
▁میهمانان	-15769
▁کاملترین	-15770
▁1395-04-1	-15771
▁بیماری‌ها	-15772
▁ترکمنستان	-15773
▁فعالیت‌ها	-15774
OL	-15775
vi	-15776
ire	-15777
احی	-15778
اعه	-15779
عدم	-15780
پلی	-15781
▁۷۴	-15782
...»	-15783
روزه	-15784
▁com	-15785
▁۱۱۰	-15786
▁اوتی	-15787
▁بهجت	-15788
▁جرأت	-15789
▁حجاج	-15790
▁حوله	-15791
▁صراط	-15792
▁عمار	-15793
▁لابد	-15794
▁مردن	-15795
▁نبوی	-15796
▁نترس	-15797
▁نطفه	-15798
▁پاکت	-15799
▁۱۳۸۶	-15800
▁اسمیت	-15801
▁بیارم	-15802
▁تخیلی	-15803
▁تمرين	-15804
▁نگفته	-15805
▁الگویی	-15806
▁انگشتر	-15807
▁بايگان	-15808
▁بخواهم	-15809
▁تبلیغی	-15810
▁رسوایی	-15811
▁محمودی	-15812
▁ناموفق	-15813
▁کاندوم	-15814
▁تفریحات	-15815
▁كارشناس	-15816
▁نمي‌شود	-15817
▁جنابعالی	-15818
▁نیشابوری	-15819
▁پایین‌تر	-15820
)(	-15821
ee	-15822
ey	-15823
لل	-15824
لۀ	-15825
اسپ	-15826
رکه	-15827
عشق	-15828
نگار	-15829
ولات	-15830
▁Sep	-15831
▁الج	-15832
▁الخ	-15833
▁منگ	-15834
▁مهی	-15835
آخرین	-15836
ادراه	-15837
▁Play	-15838
▁ادله	-15839
▁بخدا	-15840
▁تایم	-15841
▁خزان	-15842
▁خوشت	-15843
▁عادي	-15844
▁مدلی	-15845
▁مظهر	-15846
▁میزن	-15847
▁نورد	-15848
▁همسو	-15849
▁واسم	-15850
▁وقته	-15851
▁چشمش	-15852
چه‌های	-15853
▁ادمین	-15854
▁ادوار	-15855
▁تسلیح	-15856
▁تطابق	-15857
▁مذهبي	-15858
▁نزولی	-15859
▁گلچین	-15860
▁گناهی	-15861
▁یوسفی	-15862
▁اونوقت	-15863
▁ایرباس	-15864
▁دیابتی	-15865
▁ریشتری	-15866
▁شادابی	-15867
▁شهرکرد	-15868
▁افزودنی	-15869
▁درآورده	-15870
▁روزگاری	-15871
▁پذیرفتن	-15872
▁پروپوزال	-15873
▁بریتانیایی	-15874
/03	-15875
hab	-15876
اکو	-15877
جری	-15878
فدر	-15879
ورن	-15880
جاعی	-15881
شبکه	-15882
قایق	-15883
کاهش	-15884
▁160	-15885
▁كجا	-15886
▁لرد	-15887
▁محف	-15888
پیمای	-15889
‌داری	-15890
▁بیژن	-15891
▁تتلو	-15892
▁تجلی	-15893
▁خدشه	-15894
▁خروس	-15895
▁زمام	-15896
▁ظالم	-15897
▁فالو	-15898
▁فسفر	-15899
▁قضای	-15900
▁لهجه	-15901
▁معوق	-15902
▁مولف	-15903
▁نظرش	-15904
▁پازل	-15905
▁ژرمن	-15906
▁کتبر	-15907
▁یحیی	-15908
▁۲۰۰۷	-15909
انواده	-15910
▁views	-15911
▁اسیدی	-15912
▁باخبر	-15913
▁تلوزی	-15914
▁دنیوی	-15915
▁دوسال	-15916
▁راحتي	-15917
▁عمیقی	-15918
▁قبایل	-15919
▁منزوی	-15920
▁نباشی	-15921
▁هلندی	-15922
اطلاعات	-15923
▁ایرادی	-15924
▁بخشیده	-15925
▁تویوتا	-15926
▁روحاني	-15927
▁شايسته	-15928
▁شناسند	-15929
▁فشارها	-15930
▁مارتین	-15931
▁مختصری	-15932
▁معاشرت	-15933
▁یکباره	-15934
▁آموزنده	-15935
▁تأثیرات	-15936
▁سردرگمی	-15937
▁فشارخون	-15938
▁خودکفایی	-15939
ms	-15940
row	-15941
صلى	-15942
‌و‌	-15943
،...	-15944
رسید	-15945
وعلی	-15946
▁طمع	-15947
▁نفخ	-15948
▁ژئو	-15949
دانند	-15950
شنایی	-15951
گرانه	-15952
▁ارضی	-15953
▁به‌ت	-15954
▁ترقی	-15955
▁ذخیر	-15956
▁سودی	-15957
▁ضایع	-15958
▁فانی	-15959
▁موکل	-15960
▁مِنْ	-15961
▁آن‌جا	-15962
▁ايميل	-15963
▁بشمار	-15964
▁تشکيل	-15965
▁دارال	-15966
▁دعاوی	-15967
▁فواصل	-15968
▁مطیعی	-15969
▁میکشه	-15970
▁کیمیا	-15971
▁آب‌های	-15972
▁العالم	-15973
▁بدنتان	-15974
▁برزیلی	-15975
▁بلوتوث	-15976
▁موتوری	-15977
▁افشاگری	-15978
▁ترانزیت	-15979
▁مسوولیت	-15980
▁همونطور	-15981
▁بیرانوند	-15982
▁می‌توانم	-15983
▁نمايشگاه	-15984
▁ولادیمیر	-15985
▁داوطلبانه	-15986
▁هواپیماها	-15987
▁موتورسیکلت	-15988
▁نسخه‌برداری	-15989
+)	-15990
]،	-15991
ّق	-15992
ُّ	-15993
۶۸	-15994
ple	-15995
سیر	-15996
منا	-15997
ييم	-15998
‌آپ	-15999
اریه	-16000
اوره	-16001
باقر	-16002
پناه	-16003
پیام	-16004
کولی	-16005
▁97)	-16006
▁جگر	-16007
▁دنا	-16008
▁سزا	-16009
▁فند	-16010
▁واک	-16011
یافته	-16012
‌کاری	-16013
▁2007	-16014
▁اورا	-16015
▁روتر	-16016
▁زنیم	-16017
▁شرور	-16018
▁صحرا	-16019
▁هپات	-16020
▁ونیز	-16021
▁الفاظ	-16022
▁حدیثی	-16023
▁زبانه	-16024
▁فقرات	-16025
▁لباسی	-16026
▁ماورا	-16027
▁متحول	-16028
▁ملزوم	-16029
▁توریسم	-16030
▁خطاهای	-16031
▁درماني	-16032
▁لاوروف	-16033
▁چیزایی	-16034
▁کامپوز	-16035
▁سرزمینی	-16036
▁میخواهم	-16037
▁هماهنگي	-16038
▁محدودیتی	-16039
▁منصوریان	-16040
▁آموزش‌های	-16041
▁سونوگرافی	-16042
▁توانمندسازی	-16043
▁فارغ‌التحصیل	-16044
:.	-16045
RE	-16046
RP	-16047
/05	-16048
yst	-16049
آقا	-16050
▁+1	-16051
▁04	-16052
▁۵۹	-16053
ساری	-16054
▁RSS	-16055
▁تکل	-16056
▁كنه	-16057
▁نيك	-16058
▁چرت	-16059
▁کذب	-16060
فارسی	-16061
▁برهه	-16062
▁راوی	-16063
▁لنگر	-16064
▁نازی	-16065
▁وخیم	-16066
▁کادو	-16067
▁کاوه	-16068
▁گذرو	-16069
▁گرده	-16070
بايجان	-16071
خیابان	-16072
▁اروند	-16073
▁ربانی	-16074
▁رحمان	-16075
▁سعیدی	-16076
▁سنگين	-16077
▁قضائی	-16078
▁مشتري	-16079
▁هستین	-16080
▁پاساژ	-16081
▁کردها	-16082
اجتماعی	-16083
▁آنگونه	-16084
▁دانستم	-16085
▁شنیدنی	-16086
▁نکردیم	-16087
▁راهکاری	-16088
▁شیائومی	-16089
▁قسمتهای	-16090
▁میکروبی	-16091
▁آتش‌سوزی	-16092
▁آمریکاست	-16093
▁فرارسیدن	-16094
▁رضایتمندی	-16095
her	-16096
ئوس	-16097
واف	-16098
▁Am	-16099
▁قح	-16100
ایفه	-16101
فتند	-16102
▁(10	-16103
▁الأ	-16104
▁دمت	-16105
▁فيز	-16106
▁قور	-16107
[...]
